, 426747
. 329458
the 134997
and 97003
in 92435
und 85917
to 79090
die 78066
of 74224
a 73529
that 59876
i 55532
der 51622
sie 51558
it 49746
das 49539
ich 48626
&quot; 48430
es 47772
you 45836
ist 44946
is 42644
we 42093
wir 40979
zu 37304
&apos;s 36495
so 35984
was 33248
this 32255
? 27866
ein 25752
-- 24561
von 24102
an 24027
eine 23758
dass 23322
: 22773
nicht 22663
den 22454
they 21072
on 20019
mit 19588
for 18958
er 18686
are 18392
wie 17955
auf 17416
have 17311
what 17112
but 16818
man 16301
with 15954
can 15363
sich 15349
all 15016
sind 14760
aber 14644
für 14588
haben 14374
wenn 14346
als 14085
&apos;t 14069
as 13894
at 13808
be 13709
about 13691
there 13609
um 13381
also 13270
war 12530
diese 12129
do 11772
one 11765
not 11614
-@@ 11243
im 11061
my 10942
&apos;re 10919
ver@@ 10774
people 10666
dem 10306
if 10245
he 10223
like 10177
or 10082
from 10069
einen 9761
er@@ 9537
an@@ 9511
des 9497
uns 9359
now 9323
these 9191
be@@ 9058
just 8967
können 8962
me 8833
oder 8589
werden 8559
our 8545
hier 8439
re@@ 8438
s@@ 8390
aus 8345
ge@@ 8287
because 8220
when 8219
hat 8207
very 8193
un@@ 7996
über 7940
out 7922
how 7777
s 7763
by 7730
einer 7699
– 7632
auch 7557
te 7465
up 7439
know 7404
einem 7386
them 7302
kann 7300
going 7185
dann 7085
sehr 7015
us 6951
which 6912
here 6843
more 6808
see 6794
wird 6791
k@@ 6758
had 6746
nur 6731
think 6728
ing 6621
t@@ 6537
ed 6523
gibt 6442
who 6406
your 6337
menschen 6320
ten 6305
really 6292
ihnen 6240
will 6203
get 6195
their 6187
sehen 6145
en@@ 6145
then 6127
were 6122
mich 6119
e@@ 6098
would 6084
a@@ 6082
in@@ 6061
ab@@ 6039
sein 5997
&apos;ve 5921
d@@ 5858
world 5856
g@@ 5845
time 5667
dieser 5648
some 5643
etwas 5610
&apos;m 5573
aus@@ 5567
t 5503
ein@@ 5478
nach 5451
noch 5433
way 5389
has 5372
habe 5352
don 5348
actually 5304
b@@ 5301
en 5281
o@@ 5244
am 5192
into 5183
go 5107
mir 5094
ti@@ 5093
where 5052
; 5038
vor 4996
things 4972
i@@ 4953
bei 4930
e 4900
years 4871
alle 4829
mehr 4822
welt 4817
- 4747
p@@ 4712
c@@ 4710
other 4689
no 4617
ch@@ 4605
well 4587
could 4503
want 4449
ihre 4431
leben 4425
machen 4421
y 4419
li@@ 4386
de@@ 4369
meine 4369
h@@ 4332
da 4332
zum 4321
make 4320
di@@ 4309
m@@ 4306
weil 4290
sch@@ 4286
r@@ 4277
right 4270
been 4255
said 4254
new 4229
ma@@ 4187
dies 4181
g 4180
m 4178
nun 4176
z@@ 4175
wurde 4154
wirklich 4137
gen 4119
she 4090
u@@ 4076
art 4062
dieses 4061
f@@ 4056
something 4040
kind 4011
st@@ 3990
auf@@ 3973
al@@ 3969
than 3935
se@@ 3912
durch 3889
al 3876
ung 3867
first 3860
two 3831
le@@ 3801
those 3793
immer 3776
ar@@ 3764
his 3753
look 3752
zu@@ 3749
tun 3745
unsere 3699
thing 3693
zeit 3691
ri@@ 3678
little 3658
vor@@ 3629
jetzt 3620
ihr 3612
got 3599
end 3594
&apos; 3591
wissen 3589
de 3566
y@@ 3555
much 3519
o 3518
l@@ 3496
um@@ 3489
life 3488
hatte 3467
back 3466
work 3435
say 3433
d 3425
ent@@ 3409
ter 3382
her 3377
leute 3376
most 3374
n@@ 3360
viel 3359
over 3358
keine 3352
viele 3342
ge 3333
über@@ 3306
diesem 3259
se 3253
problem 3246
only 3237
ted 3229
ro@@ 3227
sagen 3220
eines 3206
du 3197
even 3192
denn 3186
ts 3174
take 3162
sagte 3149
mal 3127
dinge 3121
able 3102
system 3078
many 3073
diesen 3070
zwei 3053
einfach 3042
waren 3034
el@@ 3027
did 3007
or@@ 2998
need 2977
bin 2969
alles 2963
jahren 2959
po@@ 2956
wo 2943
good 2940
co@@ 2936
müssen 2924
lot 2911
andere 2902
le 2887
around 2872
let 2858
why 2845
down 2828
ungen 2815
gehen 2807
come 2807
on@@ 2804
v@@ 2798
use 2798
anderen 2794
mein 2790
geht 2785
w@@ 2773
bi@@ 2772
&apos;ll 2768
würde 2760
damit 2740
k 2739
bis 2691
different 2691
every 2688
ie 2666
zur 2665
through 2665
vielleicht 2659
si@@ 2652
selbst 2615
! 2613
day 2610
pro@@ 2606
sten 2601
lo@@ 2580
gut 2570
ert 2561
at@@ 2557
p 2549
ra@@ 2537
same 2536
th@@ 2510
as@@ 2500
am@@ 2499
being 2498
put 2493
its 2492
her@@ 2477
land 2475
st 2473
jahre 2472
la@@ 2430
l 2411
ds 2410
kommen 2406
doing 2402
ger 2394
ers 2394
ni@@ 2384
ische 2358
ende 2348
ta@@ 2342
es@@ 2341
mi@@ 2324
con@@ 2314
heute 2307
eren 2307
ischen 2305
geben 2302
me@@ 2300
men 2295
three 2280
te@@ 2271
muss 2266
ja 2254
bo@@ 2253
warum 2248
geschichte 2244
called 2238
schon 2237
talk 2208
any 2207
10 2201
dis@@ 2199
einige 2190
j@@ 2185
macht 2176
ck@@ 2168
ber@@ 2163
made 2162
lassen 2158
percent 2157
ke 2144
&apos;d 2144
n 2134
b 2131
person 2128
möchte 2121
ly 2120
wieder 2116
ch 2114
tatsächlich 2113
ne@@ 2113
h 2103
ad@@ 2095
he@@ 2091
today 2084
ated 2083
great 2078
after 2071
sp@@ 2069
gt 2065
is@@ 2050
mo@@ 2042
big 2041
liche 2037
denken 2036
par@@ 2019
ation 2018
kinder 2017
tion 2014
davon 2013
ha@@ 2012
tell 2005
dort 1998
ck 1981
it@@ 1973
human 1970
year 1969
ganz 1964
vi@@ 1960
ve 1960
c 1960
unter@@ 1959
ging 1954
op@@ 1945
genau 1937
ex@@ 1935
hatten 1934
last 1928
ter@@ 1925
mar@@ 1923
seine 1923
drei 1918
fact 1917
another 1916
ger@@ 1915
find 1912
ken 1896
sa@@ 1887
ins 1875
own 1875
form 1867
ob 1865
darüber 1862
chen 1861
pe@@ 1857
idea 1856
könnte 1855
lichen 1847
ihn 1845
lich 1840
paar 1836
ent 1835
ei@@ 1833
change 1830
didn 1830
ate 1828
give 1827
fe@@ 1826
before 1825
gi@@ 1817
jahr 1817
sh@@ 1815
der@@ 1812
den@@ 1808
ur@@ 1806
ac@@ 1803
nehmen 1802
do@@ 1802
wollen 1802
went 1800
should 1796
to@@ 1795
teil 1794
20 1794
r 1789
started 1785
werde 1780
weise 1779
ern 1778
thought 1776
ste 1772
design 1770
ko@@ 1764
tions 1762
ting 1761
tag 1760
pi@@ 1754
show 1745
au@@ 1743
story 1743
off 1736
meiner 1732
sti@@ 1722
ten@@ 1719
ihren 1714
com@@ 1710
f 1709
finden 1704
hin@@ 1700
3@@ 1699
weg 1696
wurden 1695
sen@@ 1693
ding 1688
never 1688
stellen 1685
start 1685
better 1685
course 1683
again 1680
während 1679
important 1678
still 1674
pa@@ 1673
denen 1671
kommt 1669
ste@@ 1668
ru@@ 1668
fi@@ 1664
frage 1654
moment 1645
bu@@ 1642
jeder 1642
gab 1640
sen 1636
per@@ 1636
im@@ 1635
ce 1634
zwischen 1632
su@@ 1632
him 1631
tet 1630
tra@@ 1628
does 1626
part 1621
denke 1620
gemacht 1617
water 1617
pre@@ 1615
next 1610
might 1610
dazu 1609
gen@@ 1608
ago 1603
beispiel 1602
each 1601
together 1598
place 1597
technology 1594
wäre 1593
used 1592
brain 1590
vom 1588
sondern 1585
ok 1580
unserer 1579
ho@@ 1572
sogar 1571
neue 1568
came 1568
okay 1566
no@@ 1563
bit 1563
tes 1559
thank 1559
ä@@ 1555
... 1553
sk@@ 1550
bringen 1547
mon@@ 1544
glaube 1543
doch 1541
computer 1540
da@@ 1539
ungs@@ 1537
kein 1536
unter 1532
ar 1530
x 1528
unser 1527
ale 1527
so@@ 1526
nen 1524
50 1524
man@@ 1523
ir@@ 1518
long 1517
qu@@ 1512
for@@ 1512
mu@@ 1510
natürlich 1507
na@@ 1504
mit@@ 1502
ks 1501
est 1499
zeigen 1498
em 1494
kon@@ 1492
arbeit 1491
el 1491
fa@@ 1487
car@@ 1485
ihrer 1483
arbeiten 1483
too 1483
weiter 1481
ohne 1481
einmal 1480
.@@ 1480
fall 1479
million 1479
between 1479
tr@@ 1476
point 1475
hand 1473
school 1472
z 1471
few 1470
em@@ 1469
weiß 1468
gerade 1467
looking 1466
sieht 1463
ating 1461
hi@@ 1460
oh 1460
nie 1457
fen 1454
wa@@ 1453
war@@ 1450
nichts 1445
dafür 1443
children 1443
mean 1437
durch@@ 1424
würden 1418
30 1416
information 1411
ben 1407
try 1407
ö@@ 1406
sort 1403
ere 1402
du@@ 1398
maybe 1397
done 1396
ty 1391
ine 1389
prozent 1389
passiert 1381
zurück 1380
ever 1379
verstehen 1377
erste 1377
gra@@ 1377
sta@@ 1376
found 1374
ges 1373
less 1368
data 1366
ous 1363
ded 1363
erte 1362
whole 1361
love 1360
question 1359
vielen 1356
inter@@ 1356
schen 1354
doesn 1350
live 1349
cht 1348
red 1346
br@@ 1345
w 1342
zi@@ 1340
kt 1340
daran 1340
fragen 1338
light 1337
je@@ 1336
sprechen 1336
sc@@ 1334
bar 1333
sagt 1333
ersten 1332
gu@@ 1332
millionen 1329
real 1329
example 1329
may 1328
understand 1323
ses 1318
wanted 1318
bild 1314
four 1313
idee 1306
gel@@ 1306
konnte 1305
isch 1305
we@@ 1301
wei@@ 1299
ct 1297
dollar 1290
ganze 1287
große 1286
working 1286
old 1282
using 1281
women 1280
age 1280
letzten 1278
min@@ 1277
son 1276
wer 1274
dabei 1274
ic 1267
trying 1263
fast 1262
etwa 1260
ens 1259
city 1258
elle 1257
call 1256
bekommen 1255
us@@ 1255
könnten 1254
welche 1254
times 1253
mis@@ 1252
ze 1252
wi@@ 1251
nach@@ 1251
ben@@ 1251
away 1249
power 1248
internet 1243
wasser 1239
4@@ 1237
kids 1236
seite 1233
et@@ 1233
money 1233
ange@@ 1231
ction 1229
tive 1229
sollte 1228
ant 1226
kam 1222
everything 1222
100 1219
always 1217
ot@@ 1213
tri@@ 1211
ally 1210
space 1207
believe 1207
ons 1205
frauen 1204
il@@ 1204
geld 1201
feel 1201
all@@ 1196
five 1196
hand@@ 1195
sollten 1193
ziemlich 1192
2 1191
ak@@ 1190
bar@@ 1189
daten 1188
enden 1187
meisten 1186
ary 1185
wollte 1183
sache 1181
lei@@ 1180
ves 1180
country 1179
meinen 1172
kan@@ 1170
king 1169
hal@@ 1167
help 1167
ph@@ 1163
men@@ 1163
ser@@ 1162
tionen 1160
meinem 1159
lin@@ 1157
thinking 1155
ans 1151
essen 1148
jemand 1147
d-@@ 1141
number 1141
comes 1140
create 1138
wichtig 1136
ps 1135
food 1135
pri@@ 1134
u 1133
ka@@ 1133
ker 1133
zen 1132
dar@@ 1130
ms 1129
kleinen 1129
gesehen 1128
ü@@ 1127
dr@@ 1126
gesch@@ 1126
took 1126
stand 1125
technologie 1125
second 1125
tion@@ 1122
cken 1119
halten 1118
ol@@ 1117
mann 1117
ft 1116
str@@ 1116
ges@@ 1116
darauf 1115
energy 1114
vier 1108
5@@ 1108
video 1108
tu@@ 1107
science 1107
brauchen 1106
om@@ 1106
lernen 1104
sense 1104
ellen 1102
th 1102
means 1100
eigentlich 1096
ul@@ 1096
x@@ 1096
zusammen 1094
weniger 1094
making 1093
fo@@ 1092
wor@@ 1089
ment 1089
chte 1086
zusammen@@ 1083
china 1082
ff@@ 1081
future 1079
besser 1078
getting 1077
mer@@ 1073
raum 1073
ster@@ 1072
side 1071
become 1071
ster 1070
quite 1070
15 1068
tung 1067
enough 1067
bri@@ 1065
best 1065
dra@@ 1061
großen 1060
building 1060
small 1060
pl@@ 1059
ganzen 1057
says 1056
probably 1051
hei@@ 1047
menge 1045
bei@@ 1044
bedeutet 1043
los 1043
hen 1042
det 1041
dachte 1040
&#91; 1038
che 1037
&#93; 1037
ability 1037
home 1035
tro@@ 1032
social 1032
eln 1031
ag@@ 1031
half 1030
play 1029
without 1026
licher 1025
ihm 1022
tt@@ 1021
glauben 1019
earth 1019
zeigt 1018
tz@@ 1018
gr@@ 1016
kleine 1015
rei@@ 1015
unseren 1015
left 1014
3 1012
cor@@ 1012
e-@@ 1011
body 1011
stuff 1010
interesting 1009
ihrem 1007
kl@@ 1007
talking 1007
che@@ 1006
punkt 1005
har@@ 1005
chten 1004
ways 1002
gehirn 997
dollars 997
room 996
tic 995
lebens@@ 994
set 989
ties 988
schauen 986
versuchen 985
africa 985
coming 983
re 982
star@@ 982
ble 982
happened 981
alen 979
danke 978
jedes 976
line 976
spielen 974
gegen 974
ort 974
seen 973
ab 970
grund 969
ci@@ 968
frau 967
allen 966
6@@ 962
ja@@ 961
ll@@ 957
build 956
nein 953
führen 951
trans@@ 951
york 950
ies 950
simple 949
7@@ 949
ju@@ 949
global 948
jeden 947
ask 946
bes@@ 945
anything 944
ausge@@ 943
cted 940
licht 938
indem 938
ance 938
erung 936
flo@@ 930
goes 930
while 929
seit 928
and@@ 925
8 924
planet 924
project 924
teilen 923
beim 923
bauen 922
stra@@ 922
days 922
nutzen 920
pretty 920
makes 920
ca@@ 918
per 917
erde 917
tan@@ 917
move 917
lives 917
zukunft 916
problems 916
ali@@ 916
ne 913
gesagt 913
cher 913
such 912
health 912
case 912
tre@@ 911
go@@ 911
told 911
across 910
high 909
5 908
schaffen 908
ors 908
ell 908
ner 907
gl@@ 907
film 907
once 904
happen 903
ws 902
living 898
res@@ 897
jo@@ 896
bad 896
car 896
seiner 895
book 895
wer@@ 894
basically 894
keinen 893
wahrscheinlich 892
eigenen 891
sub@@ 891
1 890
ing@@ 890
erten 889
fünf 889
hin 888
4 888
hätte 888
else 885
the@@ 884
saw 884
gs 883
sts 883
gute 882
ones 881
stehen 879
imagine 878
yet 878
picture 877
später 876
test 876
job 875
1@@ 874
8@@ 874
ts@@ 872
40 869
care 869
countries 869
zurück@@ 868
fl@@ 866
happens 866
ken@@ 865
tig 865
iert 865
cy 865
ung@@ 860
sche 860
having 859
ku@@ 858
stellt 858
mind 857
business 856
tor@@ 855
stadt 855
neu@@ 855
family 855
arten 854
heraus 854
ings 854
jede 853
team 851
9@@ 851
rate 850
hard 850
zer@@ 849
cht@@ 847
experience 847
super@@ 846
setzen 846
ma 846
des@@ 842
ged 842
sure 842
asked 842
19@@ 841
later 841
probleme 840
lu@@ 840
6 840
nature 840
sah 839
ari@@ 839
young 839
schule 838
s-@@ 838
sicher 837
name 836
hö@@ 835
lange 834
kom@@ 834
stri@@ 832
ideas 832
energie 831
fu@@ 831
tigen 828
anzu@@ 827
learn 827
funktioniert 824
nu@@ 824
ungefähr 823
pro 823
20@@ 822
ke@@ 821
ver 821
lang 820
ful 819
ton 818
wo@@ 818
mor@@ 817
pen@@ 815
inside 815
pp@@ 813
et 813
pres@@ 813
hu@@ 812
welt@@ 811
richtig 810
cu@@ 810
än@@ 809
pu@@ 808
wenig 807
everybody 806
7 805
y-@@ 804
ga@@ 803
mutter 803
konnten 803
six 803
history 803
kte 802
ler 802
process 801
liches 800
top 800
over@@ 800
&amp; 799
sur@@ 798
helfen 798
rest 798
state 797
erzählen 795
open 795
systems 795
child 795
states 795
reason 795
buch 794
ell@@ 794
zwei@@ 793
kor@@ 793
saying 793
nothing 792
ure 791
tieren 791
cks 791
billion 791
lan@@ 790
single 790
both 790
ely 789
under@@ 788
sing 787
oft 785
recht 785
ches 783
heißt 782
neuen 782
körper 781
kten 781
within 780
genug 779
erst 778
whether 778
liebe 777
almost 777
schnell 776
bel@@ 775
sage 775
looks 774
ba@@ 772
far 772
dung 771
bring 770
cells 770
ity 769
möglich 768
tern 768
mm@@ 768
material 768
tete 766
ars 766
ideen 765
level 765
tige 764
mil@@ 763
weit 763
nächsten 763
tation 763
already 763
music 763
ry 762
els 761
hören 760
wrong 760
braucht 759
cancer 758
dan@@ 757
afrika 757
remember 756
gruppe 755
alt 755
anders 754
keep 754
wunder@@ 752
% 752
gets 752
unserem 751
ban@@ 750
bisschen 750
ber 750
under 750
house 750
gern 749
guy 748
mal@@ 747
true 747
einander 746
ß@@ 746
elt 745
begann 745
sion 745
les 745
fol@@ 744
possible 744
ven@@ 742
fan@@ 742
projekt 741
reden 741
fr@@ 739
order 739
0s 739
dank 738
bio@@ 738
ieren 737
hope 737
leuten 736
ments 736
heard 736
seinen 735
ßen 733
heit 733
community 733
darum 732
zed 732
überall 731
beautiful 731
looked 731
gro@@ 730
euch 728
bevor 728
ates 727
bor@@ 726
sachen 725
schi@@ 725
manchmal 725
often 725
yes 724
group 724
matter 724
ap@@ 723
teil@@ 721
ters 721
out@@ 721
face 721
fer@@ 720
är@@ 720
planeten 719
schul@@ 719
ki@@ 717
entwickelt 714
ents 714
piece 714
research 713
fe 712
mittel@@ 712
public 712
built 712
geb@@ 711
gehört 711
por@@ 710
je 710
read 710
india 710
sei 709
ator 708
ness 707
lich@@ 706
ling 706
months 705
can@@ 704
mel@@ 704
united 704
ner@@ 703
fer 703
answer 703
works 703
amazing 703
bur@@ 702
god 702
ob@@ 701
natur 701
gh@@ 701
bt 700
late 700
stories 699
wert 698
head 697
universe 697
9 695
milliarden 695
someone 695
wieder@@ 694
cre@@ 694
situation 693
unternehmen 693
taking 693
sagten 692
tional 692
gend 691
zellen 691
ence 691
ved 691
myself 691
ig@@ 690
col@@ 690
seinem 689
ase 689
places 689
liegt 688
va@@ 688
kennen 687
besch@@ 687
gener@@ 687
words 687
education 687
instead 686
mädchen 684
dro@@ 683
informationen 683
since 683
wal@@ 682
tze 682
gel 682
sha@@ 682
nennen 681
eins 681
until 681
anderes 680
tur@@ 680
wissenschaft 680
mer 679
usa 679
yeah 677
species 677
dna 676
fahr@@ 676
isn 676
tat 675
ourselves 675
off@@ 674
control 674
ie@@ 673
ia 673
ving 673
government 673
sometimes 673
fand 671
bau@@ 670
ischer 670
front 670
revolution 669
12 667
land@@ 667
night 667
generation 666
led 666
turn 666
199@@ 665
ces 665
/ 664
25 663
tische 662
0@@ 661
happy 661
decided 661
gestellt 660
eg@@ 659
— 659
somebody 659
kr@@ 658
erkennen 658
und@@ 658
nor@@ 657
besonders 657
mp@@ 656
lage 656
bilder 655
deshalb 654
spiel 653
bl@@ 653
steht 652
pf@@ 652
middle 652
couple 652
wel@@ 651
ene 651
heart 651
machte 650
language 650
verändern 649
stop 649
lichkeit 648
lau@@ 648
rather 648
turns 648
zeit@@ 647
versch@@ 647
tä@@ 647
heraus@@ 646
teile 646
stück 646
gleich 645
ou@@ 645
t-@@ 644
geschichten 644
gar 643
enti@@ 643
gesellschaft 642
sprache 642
model 642
exactly 642
führt 641
familie 641
2@@ 641
treffen 641
fin@@ 639
minuten 639
alten 639
gefühl 638
namens 637
large 636
sau@@ 635
spiel@@ 635
society 635
ev@@ 635
kinds 635
wegen 634
ün@@ 634
erreichen 634
tischen 634
wasn 634
bereits 633
mü@@ 633
klar 633
fil@@ 633
word 633
run 633
though 632
everyone 632
company 631
oben 630
woman 630
vater 629
tions@@ 629
benutzen 629
flu@@ 627
hren 627
act 627
itself 627
auszu@@ 626
ziehen 626
sam@@ 625
mother 625
hoch@@ 624
gan@@ 624
dich 623
indien 623
completely 623
musste 622
minutes 622
themselves 622
verschiedene 621
ations 621
game 621
lebens 620
hätten 620
news 620
animals 620
id 619
möglichkeit 618
students 618
irgend@@ 617
pan@@ 617
tragen 617
sechs 617
cra@@ 616
antwort 616
musik 616
cr@@ 616
share 616
gang 615
vo@@ 615
evolution 615
v 614
stre@@ 614
end@@ 614
became 614
80 613
enen 613
hr@@ 613
dy 613
cke 613
fla@@ 613
sei@@ 611
viel@@ 611
cal 611
shows 611
sel@@ 610
kal@@ 609
ess 609
char@@ 609
must 609
experiment 607
darin 606
haus 606
kat@@ 605
innovation 605
table 604
pac@@ 604
america 604
happening 604
bas@@ 603
sal@@ 601
american 601
environment 601
60 600
learned 600
sto@@ 599
friends 599
gene 598
net 598
meter 598
oil 598
ics 598
study 598
hear 598
created 598
gerne 597
air 597
tiert 596
ce@@ 596
wasser@@ 596
view 596
weiter@@ 595
kopf 595
bil@@ 595
ton@@ 595
huge 595
einzige 594
gkeit 594
os 593
sound 593
win@@ 592
sho@@ 592
hours 592
tiere 591
tten 591
third 591
jedem 590
frei@@ 590
ele@@ 590
ven 590
mittel 590
auto@@ 589
falls 589
gar@@ 589
tru@@ 588
natural 587
ys 586
ment@@ 586
bra@@ 586
century 586
einigen 585
augen 585
oper@@ 585
cur@@ 585
besten 583
lie@@ 583
lar@@ 583
ic@@ 583
ach@@ 582
nung 582
won 582
arm 581
stic 581
disease 580
schreiben 579
stor@@ 579
entwickeln 578
länder 578
gte 577
stunden 577
stat@@ 577
lation 577
sed 577
guys 577
tter@@ 576
kol@@ 574
onen 574
dessen 574
innerhalb 574
population 574
fre@@ 573
ß 573
along 573
worked 572
regi@@ 571
ckt 571
niemand 571
bat@@ 571
irgendwie 570
don@@ 570
self-@@ 570
bewegen 569
sor@@ 569
gleichen 569
fish 569
market 569
bringt 568
wachsen 568
gott 568
ran@@ 568
fra@@ 568
gleiche 567
questions 567
figure 565
tisch 564
ka 564
center 564
pos@@ 564
perhaps 564
gebracht 563
san@@ 563
area 563
particular 563
lässt 562
early 562
turned 562
moving 562
verhalten 561
soll 561
based 561
knew 561
schließlich 560
ern@@ 560
national 559
kindern 559
regierung 559
psych@@ 559
gebäude 558
cher@@ 558
against 558
others 557
lots 557
couldn 557
aufge@@ 556
pas@@ 556
machine 556
obwohl 554
sted 554
ocean 554
verschiedenen 553
menschlichen 552
18@@ 552
up@@ 552
zing 552
tiven 551
clo@@ 551
gave 551
hol@@ 550
wür@@ 550
learning 550
known 550
during 550
lt 549
verwenden 549
äu@@ 549
past 549
ked 548
vorstellen 547
schaft 547
erhalten 547
wing 547
möglichkeiten 546
hor@@ 546
zei@@ 546
ted@@ 546
gegen@@ 546
ur 545
takes 545
hl@@ 544
plan 544
rec@@ 544
gleich@@ 544
dern 543
position 542
lesen 542
vision 541
200 541
ändern 541
patienten 541
phone 541
cally 541
beiden 540
my@@ 540
least 540
scale 540
cell 539
500 538
cri@@ 538
nimmt 537
bs 536
aren 536
lose 536
physi@@ 535
cts 535
kre@@ 534
nämlich 534
produ@@ 533
gemein@@ 533
ture 533
free 533
outside 533
schw@@ 532
eltern 532
eth@@ 532
gten 531
lösung 531
kraft 531
syn@@ 531
aten 530
genommen 530
aller 530
dri@@ 530
finally 530
ther@@ 529
wollten 529
chter 529
hab@@ 529
father 529
krebs 528
dir 528
ground 528
culture 528
bre@@ 527
tage 527
chance 526
cing 526
difference 526
stellte 525
online 525
ren@@ 525
media 525
wonderful 525
del@@ 524
key 524
len 524
needs 524
ying 524
seven 524
schwer 523
männer 523
entire 523
beginnen 522
version 522
close 522
taken 522
kamen 521
david 521
unglaublich 521
ori@@ 521
tt 520
mus 520
patient 519
ec@@ 519
lösen 518
ined 518
isches 517
entwicklung 517
wirtschaft 517
fähigkeit 516
ess@@ 516
formen 516
hlt 516
tal@@ 516
kunst 516
damals 515
hoch 515
stelle 515
bitte 515
na 515
pt 515
rück@@ 514
yo@@ 514
gre@@ 514
image 514
google 513
auto 513
green 513
herum 512
ant@@ 512
glück 511
gri@@ 511
sinn 511
hnen 510
fahren 510
ders 510
versucht 509
thousands 509
met 508
selbst@@ 508
kar@@ 508
arti@@ 507
drei@@ 506
universum 506
force 506
powerful 506
fü@@ 505
fangen 505
wohl 505
wir@@ 505
hause 504
hn@@ 504
daher 504
west 504
län@@ 504
stage 504
fort@@ 503
voll@@ 503
legen 503
flie@@ 503
parts 503
laufen 502
whatever 502
staaten 501
tter 501
angst 501
kultur 501
kop@@ 501
getan 500
poli@@ 500
yourself 500
fühlen 499
ust 499
seeing 499
changed 499
stoff 498
kti@@ 498
lehr@@ 498
rie@@ 498
kin@@ 498
ssen 497
dre@@ 497
hinter 497
zt 497
nächste 497
uni@@ 497
gung 497
schön 497
tend 496
überhaupt 496
anti@@ 496
cost 496
behind 496
grow 496
schü@@ 495
richtung 495
sü@@ 495
far@@ 495
ls 495
beginning 495
voll 494
ide@@ 494
hilfe 494
software 494
given 494
verändert 493
bal@@ 493
walk 493
leave 493
certain 493
tut 492
blick 492
eyes 492
indi@@ 491
visu@@ 491
normal 491
nis 491
wort 490
zwar 490
bewegung 490
ani@@ 490
rech@@ 490
pped 490
spezi@@ 489
tzen 489
baren 489
son@@ 488
krieg 488
nachdem 488
size 488
spend 488
gene@@ 487
zahlen 487
fly 487
pal@@ 486
span@@ 486
wind 486
allem 486
cool 486
bom@@ 486
audience 486
isi@@ 485
parents 485
menschliche 484
junge 484
modell 484
ini@@ 484
alter 484
bro@@ 484
baby 484
amount 484
18 483
zahl 483
street 483
full 483
groß 482
low 482
death 482
easy 482
nahmen 481
terms 481
deren 480
neuro@@ 480
schla@@ 480
ser 480
sive 480
wh@@ 480
ism 480
letzte 479
fac@@ 479
dau@@ 478
labor 478
gest@@ 478
grunde 478
bon@@ 478
0-@@ 478
interested 478
pe 477
dete 476
kurz 476
belie@@ 476
ns 476
hiv 476
cannot 476
economic 476
plan@@ 475
buy 475
eight 475
tors 474
einge@@ 474
pla@@ 474
nan@@ 474
cap@@ 474
cho@@ 474
sterben 473
kü@@ 473
books 473
eher 472
spi@@ 472
began 472
common 472
ht 471
maschine 471
spr@@ 471
cy@@ 471
dingen 470
week 470
unten 469
treten 469
region 469
ats 469
tiv 469
web 469
kes 468
bare 468
wahr@@ 468
ard 467
worden 467
mes 467
field 467
black 467
difficult 467
lö@@ 466
wissenschaftler 466
sum@@ 466
felt 466
local 466
gone 466
erfahrung 465
tte 465
ill@@ 465
air@@ 465
äl@@ 464
.000 464
tat@@ 463
üb@@ 463
krei@@ 463
cities 463
genden 462
wider@@ 462
nahm 462
vis@@ 462
deal 462
enten 461
sin@@ 461
fis@@ 461
fanden 460
findet 460
bin@@ 460
unterschied 459
eu@@ 459
ang@@ 459
ship 459
value 459
fest@@ 458
betrachten 457
jungen 457
medi@@ 457
welches 457
blue 457
ously 457
hands 457
meines 456
ien 456
code 456
hold 456
friend 456
kaufen 455
hy@@ 455
eller 455
ums 454
top@@ 454
ris@@ 453
paper 453
ned 453
needed 453
lung 452
neu 452
len@@ 452
muster 452
south 452
squ@@ 452
fru@@ 452
zen@@ 451
weitere 451
tief@@ 451
jedoch 451
kur@@ 451
ther 451
simply 451
longer 451
en-@@ 450
führ@@ 450
eigene 450
haus@@ 450
vari@@ 450
mechan@@ 450
fliegen 450
pur@@ 449
mag 449
blu@@ 449
cting 449
anfang 448
forschung 448
10@@ 448
ker@@ 448
spent 448
realized 448
either 447
incredible 447
humans 447
mati@@ 446
fel@@ 446
boden 446
platz 446
ord@@ 446
wand@@ 446
kosten 445
personal 445
schä@@ 444
dig 444
ziel 444
lieben 444
mission 444
wohl@@ 443
thema 443
grund@@ 443
step 443
tried 443
posi@@ 442
fal@@ 442
gebaut 441
scho@@ 441
bildung 441
beste 441
asi@@ 441
sex 441
micro@@ 441
0,000 441
rau@@ 440
groß@@ 440
körper@@ 440
0.000 440
cker 440
born 440
mt 439
schu@@ 439
growth 439
forward 439
dly 439
prozess 438
om 438
roboter 438
bes 437
lehrer 437
,@@ 437
chan@@ 437
feet 437
verbindung 436
falsch 436
surface 436
solche 435
prin@@ 435
cer@@ 435
inten@@ 435
watch 435
sitting 435
quickly 435
erinnern 434
ice 434
stan@@ 433
mussten 433
atom@@ 433
companies 433
vortrag 432
interessant 432
autos 432
bank 432
white 432
clear 432
ality 432
genauso 431
hinter@@ 431
bel 431
girl 431
lost 431
complex 431
bleiben 430
woche 430
markt 429
grün@@ 429
direkt 429
fragte 429
ße 429
equ@@ 429
suchen 428
bereich 428
minute 428
fro@@ 428
structure 428
kri@@ 427
pat@@ 427
wohn@@ 427
zer 427
publikum 427
jobs 426
tau@@ 426
sollen 425
mas@@ 425
wen@@ 425
zweite 425
wouldn 425
knowledge 425
gei@@ 424
enth@@ 424
blo@@ 424
growing 424
zes 423
weg@@ 423
namen 423
fri@@ 423
board 423
hü@@ 423
virus 423
miles 423
pay 422
gefunden 421
u.s. 421
chen@@ 420
sieben 420
nt 420
fallen 420
wahr 420
od@@ 420
selben 419
198@@ 419
freunde 419
reality 419
hlen 418
zuvor 418
john 418
sie@@ 418
wol@@ 418
sea 418
einzu@@ 417
university 417
box 417
,000 417
sun 417
technologies 417
gedanken 416
il 416
ame 416
neues 416
eli@@ 416
ologie 416
sting 416
poor 416
political 416
sil@@ 415
han@@ 415
danach 414
religion 414
tin@@ 414
giving 414
monate 413
tages 413
pra@@ 413
sch 413
tives 413
economy 413
eat 413
größte 412
a-@@ 412
positive 412
guten 412
mine 412
fas@@ 412
fun 412
animal 412
oni@@ 411
hast 411
theorie 411
weeks 411
fest 410
pr@@ 410
nte 410
wusste 409
ziert 409
ften 409
ales 409
arch@@ 409
cking 409
morning 409
opportunity 409
cked 409
behavior 409
ta 408
ppe 408
setzt 408
yp@@ 408
glücklich 407
fle@@ 407
wären 407
plötzlich 406
erschaffen 406
hey 406
la 406
dat@@ 406
cul@@ 406
ft@@ 405
studi@@ 405
70 405
mag@@ 405
zehn 405
gers 405
brought 405
developed 405
changes 405
11 404
besteht 404
fall@@ 404
kli@@ 404
gegeben 403
source 403
ative 403
college 403
patients 403
cal@@ 402
scientists 402
wrote 402
telling 402
digen 401
designer 401
program 401
anyone 401
stoff@@ 400
struktur 400
testen 400
schle@@ 400
anderer 400
ah 400
ey 399
ig 399
mikro@@ 399
technologien 399
90 399
sy@@ 399
fing 399
ball 399
ha 399
äch@@ 398
reise 398
cs 398
write 398
starting 398
draußen 397
dlich 397
museum 397
zä@@ 397
o-@@ 397
gas 397
cut 397
gemeinschaft 396
sicht@@ 396
berei@@ 396
ill 396
colle@@ 396
völlig 396
lam@@ 396
coun@@ 396
theory 396
sters 395
wall 395
tools 395
feeling 395
gew@@ 394
ihres 394
vol@@ 394
technik 394
ländern 394
vers 394
prote@@ 394
images 394
wochen 393
identi@@ 393
jen@@ 393
lab 393
wes@@ 393
nice 393
offen@@ 392
gelernt 392
bot@@ 392
potential 392
glück@@ 392
sicht 392
areas 392
sehe 391
stand@@ 391
fli@@ 391
ning 391
tical 391
mate 391
climate 391
ör@@ 390
rat@@ 390
größe 390
zuerst 390
modern 390
bed 390
gives 390
luft 389
manche 389
histor@@ 389
fel 389
ss@@ 389
ched 389
reihe 388
sicherheit 388
non-@@ 388
cam@@ 388
cli@@ 388
ham@@ 387
sig@@ 387
law 387
yed 387
understanding 387
nei@@ 386
möchten 386
teten 386
ama@@ 386
sorgen 386
ca 386
tho@@ 386
radi@@ 386
wand 386
ss 385
uren 385
heiten 385
bewusst 384
beru@@ 384
scheint 384
hen@@ 384
attention 384
discovered 384
est@@ 383
enz 383
strei@@ 383
head@@ 383
aussehen 382
beginnt 382
refle@@ 382
ze@@ 382
impro@@ 382
fied 382
short 382
bereit 381
las@@ 381
herr@@ 381
mus@@ 381
pping 381
cars 381
speak 381
literally 381
leben@@ 380
pul@@ 380
unseres 380
erklären 380
moral 380
flug@@ 380
links 380
ths 380
swe@@ 380
ffe 379
bist 379
investi@@ 379
zeug 379
morgen 379
funktionieren 379
lang@@ 379
miteinander 378
general 378
zo@@ 378
cat@@ 378
forms 378
seems 378
aufgabe 377
systeme 377
arbeitet 377
egal 377
inv@@ 377
pun@@ 377
deep 377
challenge 377
playing 377
numbers 377
gewal@@ 376
schritt 376
hervor@@ 376
studenten 376
gewesen 376
musi@@ 376
tun@@ 376
produce 376
ppen 375
bran@@ 375
amerika 375
proje@@ 375
flü@@ 375
vel@@ 375
map 375
erzählt 374
anzahl 374
sol@@ 374
mars 374
she@@ 374
ical 374
fully 374
realize 374
average 374
ese 373
main 373
16 372
program@@ 372
diagno@@ 372
computer@@ 372
gs@@ 372
bli@@ 372
access 372
ently 372
anstatt 371
daraus 371
sing@@ 371
aufzu@@ 371
nachdenken 371
girls 371
tatsache 371
sli@@ 371
changing 370
brachte 370
dr. 370
denkt 370
mache 370
computers 370
ented 370
died 370
anfangen 369
fun@@ 369
oren 369
acht 369
geworden 369
nten 369
prä@@ 369
cket 369
uses 369
passieren 368
north 368
bekannt 368
karte 368
stimmt 368
auth@@ 368
absolutely 368
mm 367
niemals 367
ley 367
digital 367
ement 367
physical 367
bottom 367
klein@@ 366
gerät 366
gruppen 366
movement 366
running 366
cop@@ 365
plat@@ 365
demon@@ 365
hel@@ 365
mat@@ 365
jemals 365
lat@@ 365
verwendet 365
english 365
infe@@ 364
traum 364
ology 364
glob@@ 364
ad 364
shape 364
materials 364
alone 364
hundreds 364
developing 364
ige 363
nacht 363
firma 363
dru@@ 363
deli@@ 363
individual 363
spricht 362
steu@@ 362
vent@@ 362
aff@@ 362
bevölkerung 361
jahrhundert 361
gesicht 361
student 361
millions 361
creating 361
result 361
lin 360
log@@ 360
hier@@ 360
vorstellung 360
dem@@ 360
genannt 360
000 360
nobody 360
innen 359
messen 359
chris 359
chi@@ 359
development 359
gende 358
preis 358
mensch 358
bücher 358
analy@@ 358
quality 358
interessan@@ 357
schwierig 357
folgen 357
straße 357
tö@@ 357
tic@@ 357
gesundheit 356
kleines 356
liegen 356
wäl@@ 356
eigen@@ 356
ore 356
zeige 356
bekommt 355
london 355
gingen 355
elektr@@ 355
town 355
wahl 355
medical 355
recently 355
zentr@@ 354
spo@@ 354
solution 354
compassion 354
haupt@@ 353
beide 353
mot@@ 353
listen 353
afghanistan 353
mental 353
product 353
gebiet 352
größten 352
ständig 352
kinder@@ 352
billi@@ 352
300 352
chinese 352
wish 352
focus 352
bru@@ 351
gän@@ 351
holen 351
argu@@ 351
ßt 351
0ern 351
tor 351
clu@@ 351
designed 351
tier 350
gezeigt 350
scht 350
krankheit 350
essen@@ 350
major 350
wn 350
connected 350
showed 350
emp@@ 349
mathemati@@ 349
ed@@ 349
sonst 349
cent 349
east 349
kid 349
relationship 349
ve@@ 348
kel 348
tel@@ 348
tas@@ 348
blood 348
sä@@ 347
soziale 347
umgebung 347
cro@@ 347
industry 347
knows 347
gefü@@ 346
foto 346
hon@@ 346
politik 346
tiny 346
anybody 346
aler 345
schulen 345
1,@@ 345
fir@@ 345
eit 345
tal 345
ctions 345
tics 345
ball@@ 344
wahrheit 344
tab@@ 344
allein 344
oberfläche 344
dom@@ 344
person@@ 344
cin@@ 344
lea@@ 344
save 344
haven 344
dark 344
seem 344
obviously 344
zeiten 343
benutzt 343
talks 343
moved 343
schrieb 342
park 342
herz@@ 342
kontrolle 342
security 342
stimme 342
send 342
dic@@ 342
support 342
soon 342
ingly 342
techni@@ 341
tzt 341
ente 341
dungen 341
öl@@ 341
class 341
likely 341
talked 341
versuche 340
pflanzen 340
stark 340
verbunden 340
fehl@@ 340
tex@@ 340
issue 340
ute 339
seiten 339
städte 339
spiele 339
begin 339
incredibly 339
sicher@@ 338
network 338
jemanden 338
proz@@ 338
für@@ 338
schlecht 338
richtige 338
taten 338
ast 338
human@@ 338
happiness 338
type 338
especially 338
allow 338
available 338
rolle 337
sonnen@@ 337
bilden 337
ander@@ 337
writing 337
kleiner 336
leicht 336
zieren 336
regeln 336
tier@@ 336
wil@@ 336
cles 336
geschrieben 335
werte 335
xi@@ 334
sozi@@ 334
vie@@ 334
multi@@ 334
aids 334
ared 334
becomes 334
entfernt 333
tät 333
les@@ 333
wä@@ 333
ff 333
hälfte 333
ining 333
impact 333
effect 333
beyond 333
solve 333
meinung 332
betra@@ 332
present 332
stu@@ 332
dete@@ 332
laden 332
wat@@ 332
games 332
lived 332
lebt 331
satz 331
bedeutung 331
schaut 331
high-@@ 331
onto 331
training 331
hi 331
mass 331
action 331
perfect 331
mitte 330
ähn@@ 330
ession 330
office 330
ass 330
smo@@ 330
liter@@ 330
cou@@ 330
app@@ 330
continu@@ 330
explain 330
veränderung 329
ingen 329
gele@@ 329
hil@@ 329
pil@@ 329
dead 329
hour 329
worth 329
einfache 328
statt 328
operation 328
gegenüber 328
resources 328
bigger 328
please 328
machten 327
tausende 327
chtet 327
gesprochen 327
zelle 327
essi@@ 327
appe@@ 327
guess 327
blin@@ 326
schwier@@ 326
fähigkeiten 326
hält 326
mein@@ 326
verste@@ 326
ismus 326
richard 326
genen 326
active 326
depen@@ 326
gal@@ 325
hoffe 325
dig@@ 325
weisen 325
international 325
scientific 325
gue 325
reasons 325
industri@@ 324
biolog@@ 324
gesam@@ 324
mögen 324
ras@@ 324
erreicht 324
not@@ 324
ei 324
drive 324
sus@@ 324
strong 324
europe 324
zeich@@ 323
ren 323
sonne 323
schei@@ 323
tel 323
western 323
groups 323
device 323
fear 323
geboren 322
ans@@ 322
finde 322
thi@@ 322
lines 322
basis 321
kle@@ 321
zimmer 321
freund 321
tells 321
putting 321
mä@@ 320
lab@@ 320
14 320
sm@@ 320
verb@@ 320
solar 320
197@@ 319
programm 319
gekommen 319
mehr@@ 319
leu@@ 319
finger 319
interessiert 319
website 319
boy 319
schwer@@ 318
ank@@ 318
algorith@@ 318
rein@@ 318
dou@@ 318
eless 318
schools 318
rules 318
spro@@ 317
nis@@ 317
studie 317
glo@@ 317
med 317
sun@@ 317
color 317
teach 317
meet 317
bewegt 316
abzu@@ 316
ot 316
erfolg 316
stellung 316
nation 316
special 316
hop@@ 315
vereinigten 315
beziehung 315
schließen 315
wann 315
plant 315
teilt 315
voice 315
komplett 314
bill 314
verloren 314
ced 314
schie@@ 313
absolut 313
ansehen 313
vier@@ 313
bekam 313
ble@@ 313
roll@@ 313
bab@@ 313
ye@@ 313
hun@@ 313
sions 313
heutzutage 312
liber@@ 312
ise 312
similar 312
pictures 312
kam@@ 311
wär@@ 311
lä@@ 311
gesetzt 311
ang 311
fehler 311
ak 311
tungen 311
einzelne 311
extra@@ 311
befinden 311
road 311
village 311
several 311
towards 311
geri@@ 310
zw@@ 310
ignor@@ 310
öl 310
gesundheits@@ 309
aller@@ 309
ebene 309
tan 309
klu@@ 309
dynam@@ 309
projects 309
speed 309
door 309
issues 309
involved 309
teachers 309
ktion 308
offensichtlich 308
liert 308
dachten 308
mäch@@ 308
sionen 308
pfen 308
eye 308
activity 308
lieren 307
ina 307
tod 307
stam@@ 307
mö@@ 307
gesamte 307
mes@@ 307
pli@@ 307
sent 307
new@@ 307
list 307
break 307
particularly 307
risk 307
herausforderung 306
sofort 306
leg@@ 306
eng@@ 306
male 306
$ 306
voller 306
komme 306
bald 306
kil@@ 306
back@@ 306
econom@@ 306
asking 306
suddenly 306
indeed 306
herauszufinden 305
ach 305
gol@@ 305
geschieht 305
hle 305
port@@ 305
robot 305
krankheiten 304
nennt 304
dest 304
stellten 304
nisse 304
cla@@ 304
trotzdem 304
ober@@ 304
rus@@ 304
on-@@ 304
arb@@ 304
basic 304
ähnlich 303
bet@@ 303
normalerweise 303
deten 303
langen 303
wachstum 303
schnitt 303
star 303
mitgefühl 303
foot@@ 303
mic 303
glichen 302
kla@@ 302
lon@@ 302
wieso 302
sahen 302
symme@@ 302
esti@@ 302
cle@@ 302
nine 302
sounds 302
schau@@ 301
resi@@ 301
dy@@ 301
gearbeitet 301
linie 301
wichtige 301
ures 301
hit 301
ped 301
carbon 301
evidence 301
hoffnung 300
ny 300
kannst 300
page 300
musli@@ 300
hundred 300
certainly 300
truth 300
fä@@ 299
teri@@ 299
überrasch@@ 299
respe@@ 299
form@@ 299
smart 299
message 299
er-@@ 298
tagen 298
fig@@ 298
demo@@ 298
sl@@ 298
hau@@ 297
nutz@@ 297
sprach 297
mieren 297
13 297
mc@@ 297
starts 297
virtu@@ 297
spe@@ 297
ching 297
object 297
formed 297
schein@@ 296
möglichen 296
europa 296
stimmen 296
hung 296
sand 296
wait 296
choice 296
recor@@ 296
stay 296
mei@@ 295
ergebnis 295
stische 295
igen 295
halte 295
grenzen 295
trau@@ 295
mini@@ 295
explo@@ 295
fine 295
ators 295
anyway 295
künstler 294
passen 294
gewinnen 294
exi@@ 294
ward 294
ray 294
grand@@ 294
month 294
wants 294
führte 293
desig@@ 293
beri@@ 293
sell 293
bewusstsein 293
hospital 293
exc@@ 293
pol@@ 293
walking 293
cations 293
row 292
ordnung 292
halt 292
gas@@ 292
everywhere 292
temp@@ 292
our@@ 292
ots 292
q@@ 292
peace 292
matic 292
dec@@ 292
brea@@ 292
kunst@@ 291
verl@@ 291
energi@@ 291
unge@@ 291
sitzen 291
entscheidungen 291
cen@@ 291
kö@@ 290
24 290
ra 290
wesen 290
eben 290
ehr@@ 290
edi@@ 290
iran 290
ral 290
fire 290
examples 290
plants 290
japan 289
fassen 289
läuft 289
journ@@ 289
mark 289
mul@@ 289
cha@@ 289
ligh@@ 289
ath@@ 289
ature 289
hän@@ 288
umwelt@@ 288
anschauen 288
tlich 288
dd@@ 288
reach 288
zero 288
besu@@ 287
fälle 287
15@@ 287
gleichzeitig 287
tin 287
ket@@ 287
rela@@ 287
interest 287
pain@@ 287
showing 287
wie@@ 286
partner 286
techn@@ 286
down@@ 286
vergessen 286
zentrum 286
weltweit 286
hört 286
spa@@ 286
herum@@ 286
store 286
medicine 286
loo@@ 286
skin 286
ready 286
exciting 286
further 286
pattern 286
hä@@ 285
hielt 285
folge 285
kapit@@ 285
alte 285
total 285
ration 285
tou@@ 285
ases 285
notice 285
professor 284
zeichnet 284
tigt 284
funktion@@ 284
fte 284
länger 284
wichtiger 284
sozialen 284
bedeu@@ 284
monaten 284
al-@@ 284
bestimmten 284
self 284
größer 283
orte 283
san 283
plasti@@ 283
milli@@ 283
klas@@ 283
sieren 283
ines 283
democracy 283
journey 283
treiben 282
beobachten 282
realität 282
lagen 282
inn@@ 282
gedacht 282
nachhal@@ 282
service 282
ow@@ 282
rise 282
add 282
ably 282
develop 282
totally 282
nuclear 282
begannen 281
bedro@@ 281
rede 281
übrigens 281
einzelnen 281
effizi@@ 281
stern 281
shu@@ 281
ants 281
foot 281
extraordinary 281
sit 281
biggest 281
measure 281
follow 281
orten 280
sobald 280
spei@@ 280
klei@@ 280
x-@@ 280
daten@@ 280
frequ@@ 280
sou@@ 280
grew 280
named 280
imm@@ 279
großer 279
produkt 279
punkte 279
gutes 279
ear@@ 279
val@@ 279
ast@@ 279
ony 279
period 279
los@@ 278
stell@@ 278
netz@@ 278
gewöhn@@ 278
ließ 278
feld 278
richtigen 278
schl@@ 278
merk@@ 278
greifen 278
repor@@ 278
ming 278
sky 278
teacher 278
fische 277
aufmerksamkeit 277
besit@@ 277
firmen 277
196@@ 277
enor@@ 277
mod@@ 277
400 277
wards 277
ences 277
lead 277
ended 277
among 277
stoffe 276
sper@@ 276
non@@ 276
gemeinsam 276
abge@@ 276
ferti@@ 276
deine 276
erd@@ 276
schneller 276
wan@@ 276
ationen 276
druck 276
pick 276
überleben 275
trä@@ 275
hab 275
schn@@ 275
denk@@ 275
gaben 275
staat@@ 275
band 275
passierte 275
verlieren 275
ank 275
zier@@ 275
st-@@ 275
sh 275
cru@@ 275
organization 275
poverty 275
großes 274
lle 274
hl 274
ären 274
bessere 274
außer 274
ik 274
änder@@ 274
ops 274
ages 274
dance 274
buildings 274
comp@@ 274
ctive 274
eventually 274
redu@@ 273
wert@@ 273
fron@@ 273
spaß 273
quad@@ 273
nation@@ 273
medien 273
definition 273
bul@@ 273
tzung 272
produzieren 272
bleibt 272
kultur@@ 272
volle 272
vorher 272
halb 272
ll 272
fisch 272
cultural 272
standing 272
points 272
visual 272
posed 272
beispiele 271
stän@@ 271
langsam 271
wander@@ 271
arab@@ 271
obser@@ 271
pit@@ 271
acc@@ 271
inst@@ 271
camera 271
cause 271
largest 271
extremely 271
except 271
ingenie@@ 270
arbeits@@ 270
sammeln 270
videos 270
stars 270
success 270
approach 270
alized 270
tem 269
bele@@ 269
strom 269
umwelt 269
nachzudenken 269
medizin 269
demokratie 269
rich 269
usually 269
essentially 269
watching 269
klein 268
drücken 268
zumindest 268
aspe@@ 268
berg 268
außerdem 268
schaften 268
sprachen 268
perfe@@ 268
peri@@ 268
creative 268
products 268
arbeitete 267
rich@@ 267
interessante 267
industrie 267
zeichnen 267
berech@@ 267
nete 267
nen@@ 267
lied 267
versuchte 267
wussten 267
qui@@ 267
aging 267
text 267
shot 267
ian 267
song 267
objects 267
continue 267
winzi@@ 266
ierte 266
eig@@ 266
einfluss 266
lli@@ 266
bö@@ 266
reich 266
amerikanischen 266
sym@@ 266
stei@@ 266
power@@ 266
island 266
cies 266
tically 266
older 266
sten@@ 265
geschehen 265
to-@@ 265
bestimmt 265
verstanden 265
schlagen 265
instru@@ 265
chines@@ 265
wow 265
j 265
massive 265
series 265
cover 265
spread 265
trees 265
results 265
trag@@ 264
entdecken 264
nachrichten 264
arbei@@ 264
schrei@@ 264
17 264
verbessern 264
chtung 264
us-@@ 264
one-@@ 264
ish 264
cl@@ 264
wed 264
electricity 264
ologen 263
mensch@@ 263
stisch 263
individu@@ 263
spezies 263
sichti@@ 263
zweiten 263
paul 263
washington 263
wün@@ 263
gewalt 263
sowohl 263
hom@@ 263
innova@@ 263
electr@@ 263
screen 263
models 263
win 263
safe 263
cian 263
haut 262
schöne 262
kab@@ 262
facebook 262
bus@@ 262
kno@@ 262
klasse 262
intervie@@ 262
studien 262
phy@@ 262
roman@@ 262
co2 262
main@@ 262
dad 262
serious 262
somewhere 262
dadurch 261
hing 261
fällt 261
hit@@ 261
prei@@ 261
fei@@ 261
tly 261
brains 261
liste 260
gegangen 260
zogen 260
vorher@@ 260
krie@@ 260
ffen 260
llt 260
wu@@ 260
nar@@ 260
vertrauen 260
diejenigen 260
square 260
kn@@ 260
ght 260
minds 260
mom 260
touch 260
bühne 259
shi@@ 259
tiger 259
mathematik 259
zugang 259
studies 259
za@@ 259
poin@@ 259
impossible 259
tree 259
movie 259
kä@@ 258
erinn@@ 258
prinzip 258
methode 258
fein@@ 258
1.@@ 258
tik 258
leaders 258
flow 258
doctor 258
somehow 258
conver@@ 258
expect 258
organisation 257
brauch 257
grad 257
äumen 257
clin@@ 257
ckte 257
amerikaner 257
tam@@ 257
audi@@ 257
erzeugen 257
babies 257
attra@@ 257
vation 257
faces 257
geist 256
toll 256
personen 256
verlassen 256
esen 256
din@@ 256
quar@@ 256
führung 256
slo@@ 256
tv 256
rel@@ 256
crazy 256
0er 255
menschheit 255
scher 255
lern@@ 255
ands 255
african 255
higher 255
expensive 255
wife 255
larger 255
thousand 255
sar@@ 254
reich@@ 254
dige 254
rop@@ 254
zü@@ 254
private 254
zunehmen 254
erlaubt 254
gesi@@ 254
frei 254
nam@@ 254
charles 254
jun@@ 254
tool 254
killed 254
thre@@ 254
meaning 254
schli@@ 253
nenne 253
omen 253
stä@@ 253
richten 253
unt 253
dorf 253
zeichen 253
rechte 253
dur@@ 253
trust 253
dent 253
site 253
sorts 253
shown 253
farbe 252
spielt 252
stet 252
organisi@@ 252
gewis@@ 252
gründe 252
kra@@ 252
schlag 252
domin@@ 252
verständnis 252
werk 252
pers 252
architecture 252
pieces 252
allowed 252
kämpfen 251
gewicht 251
erwar@@ 251
bun@@ 251
handelt 251
vergangenheit 251
spar@@ 251
hole 251
hörte 251
thes@@ 251
blind 251
nachricht 251
finding 251
above 251
reading 251
iger 250
station 250
herstellen 250
tom@@ 250
früher 250
ful@@ 250
schicken 250
45 250
köni@@ 250
gos 250
biology 250
conditions 250
including 250
written 250
wirklichkeit 249
reali@@ 249
zustand 249
neben@@ 249
sexu@@ 249
versuch 249
hundert 249
konzept 249
israel 249
fundamental 249
engineering 249
swi@@ 249
provi@@ 249
upon 249
beauty 249
therefore 249
stieg 248
tom 248
sekunden 248
kern 248
hinaus 248
aussieht 248
oli@@ 248
ack@@ 248
ordin@@ 248
dreht 248
warten 248
k-@@ 248
content 248
genes 248
crisis 248
traditional 248
west@@ 247
trieben 247
web@@ 247
schüler 247
elte 247
artikel 247
universität 247
red@@ 247
tele@@ 247
papier 247
tar@@ 247
satelli@@ 247
stration 247
dream 247
connect 247
production 247
tively 247
income 247
ered 247
excited 247
großartige 246
brei@@ 246
künst@@ 246
erle@@ 246
irgendwo 246
schreck@@ 246
typ 246
frieden 246
pflan@@ 246
200@@ 246
theater 246
brau@@ 246
worte 246
press 246
transpar@@ 246
individuals 246
hrt 245
has@@ 245
erhö@@ 245
» 245
geschwindigkeit 245
suche 245
wör@@ 245
globalen 245
abstra@@ 245
wissenschaft@@ 245
f-@@ 245
chti@@ 245
illu@@ 245
cep@@ 245
hot 245
exp@@ 245
bacteria 245
goal 245
supposed 245
taught 245
öff@@ 244
schen@@ 244
tigkeit 244
familien 244
endlich 244
frü@@ 244
schaff@@ 244
arzt 244
organ@@ 244
dor@@ 244
fotos 244
cent@@ 244
shor@@ 244
lies 244
freedom 244
complicated 244
ically 244
truly 244
perspective 244
tere 243
produkte 243
zin@@ 243
12@@ 243
kul@@ 243
dun@@ 243
bus 243
central 243
ney 243
drug 243
families 243
communities 243
treatment 243
drugs 243
dn@@ 242
entweder 242
ods 242
handeln 242
werfen 242
optimi@@ 242
wissen@@ 242
terri@@ 242
freiheit 242
famous 242
violence 242
monat 241
tungs@@ 241
sinne 241
rou@@ 241
stör@@ 241
materialien 241
verbinden 241
« 241
got@@ 241
rat 241
england 241
combin@@ 241
struc@@ 241
healthy 241
bodies 241
favorite 241
seconds 241
faster 241
folgt 240
neben 240
behaup@@ 240
geni@@ 240
geh@@ 240
steigen 240
kranken@@ 240
behandlung 240
wählen 240
einzel@@ 240
oc@@ 240
transpor@@ 240
hypo@@ 240
fantastic 240
kontin@@ 239
ends 239
zahl@@ 239
öffnen 239
ly@@ 239
haft 239
chirur@@ 239
politi@@ 239
kt@@ 239
unmöglich 239
armut 239
natur@@ 239
le-@@ 239
party 239
gor@@ 239
tent 239
humanity 239
kill 239
role 239
fight 239
welcher 238
ursprün@@ 238
stem 238
grö@@ 238
niedri@@ 238
mess@@ 238
2000 238
typ@@ 238
antworten 238
lands 238
bing 238
zz@@ 238
well-@@ 238
neurons 238
alive 238
math 238
chern 237
hilft 237
werk@@ 237
gründen 237
ogra@@ 237
ners 237
qualität 237
maschinen 237
mme 237
di 237
obje@@ 237
christ@@ 237
größ@@ 237
kohlen@@ 237
sam 237
ils 237
himself 237
minister 236
zieht 236
bildet 236
geschäft 236
kommen@@ 236
aufgrund 236
details 236
interesse 236
mur@@ 236
35 236
lern 236
lauf@@ 236
original 236
kel@@ 236
reser@@ 236
repli@@ 236
hea@@ 236
response 236
meer 235
ade 235
gefähr@@ 235
lief 235
tens 235
osten 235
sohn 235
entdeckt 235
krea@@ 235
netz 235
lü@@ 235
verwen@@ 235
riesige 235
nummer 235
path@@ 235
logi@@ 235
repres@@ 235
date 235
ries 235
conven@@ 235
worse 235
ozean 234
schwe@@ 234
dge 234
balance 234
compu@@ 234
radio 234
apo@@ 234
faszinier@@ 234
heli@@ 234
bit@@ 234
erzähl@@ 234
fund@@ 234
zation 234
fy 234
cases 234
successful 234
meant 234
throughout 234
range 234
betrachtet 233
ergebnisse 233
masse 233
dasselbe 233
re-@@ 233
fern@@ 233
glich 233
myster@@ 233
einstein 233
van@@ 233
exper@@ 233
rechts 233
ima@@ 233
genome 233
tain 233
although 233
skills 233
ehe@@ 232
trägt 232
see@@ 232
150 232
reg@@ 232
17@@ 232
ebenso 232
forsch@@ 232
chts@@ 232
stunde 232
gewinn@@ 232
phones 232
glass 232
meeting 232
aid 232
inclu@@ 232
pain 232
machines 232
price 232
bunch 232
einfachen 231
fur@@ 231
objekt 231
michael 231
mani@@ 231
dritte 231
drehen 231
läu@@ 231
leisten 231
frem@@ 231
spek@@ 231
insi@@ 231
ium 231
keln 231
rele@@ 231
gh 231
hyper@@ 231
ran 231
fair 231
physics 231
respon@@ 230
dischen 230
umzu@@ 230
part@@ 230
ermöglicht 230
außergewöhn@@ 230
entschieden 230
visi@@ 230
passt 230
heben 230
neun 230
lege 230
bis@@ 230
was@@ 230
mach@@ 230
dam@@ 230
ash 230
acy 230
dist@@ 230
kept 230
bieten 229
bestimmte 229
skelet@@ 229
stes 229
alität 229
kompli@@ 229
publi@@ 229
enter 229
mau@@ 229
philosop@@ 229
wonder 229
rights 229
policy 229
three-@@ 229
earlier 229
military 229
gotten 229
fore@@ 229
arbeite 228
kamera 228
antwor@@ 228
früh@@ 228
video@@ 228
erklärt 228
verletz@@ 228
himmel 228
high@@ 228
after@@ 228
vic@@ 228
tivity 228
clearly 228
strange 228
actual 228
beings 228
era 227
rä@@ 227
legt 227
haf@@ 227
fasst 227
ty@@ 227
samen 227
signal 227
hydro@@ 227
uss 227
raum@@ 227
cycle 227
grade 227
progress 227
patterns 227
smaller 227
recognize 227
concept 227
context 227
nahrung 226
solchen 226
ier@@ 226
druck@@ 226
reichen 226
näher 226
schafft 226
mals 226
energie@@ 226
armen 226
gü@@ 226
wur@@ 226
eigent@@ 226
zeigte 226
herz 226
ereig@@ 226
samm@@ 226
diver@@ 226
slow 226
unded 226
vely 226
americans 226
uns@@ 225
endes 225
hne 225
kollegen 225
entscheiden 225
unde 225
spon@@ 225
wirk@@ 225
trag 225
argument 225
effe@@ 225
lie 225
print 225
consi@@ 225
familiar 225
waste 225
choose 225
weile 224
meeres@@ 224
spieler 224
gefragt 224
bung 224
stischen 224
medizin@@ 224
projekte 224
traf 224
gelegenheit 224
architektur 224
gesamten 224
verstand 224
bla@@ 224
que 224
president 224
thanks 224
record 224
fluss 223
matisch 223
gesetz 223
stein 223
grei@@ 223
sensor@@ 223
interak@@ 223
extra 223
depres@@ 223
waiting 223
treat 223
greater 223
values 223
plastic 223
connection 223
invented 223
costs 223
consider 223
listening 223
chung 222
seh@@ 222
chem@@ 222
lösungen 222
geschäfts@@ 222
beziehungen 222
will@@ 222
zeuge 222
raten 222
beginn 222
ack 222
loss 222
ressourcen 222
standard 222
trin@@ 222
eis 222
befindet 222
fällen 222
cir@@ 222
sinn@@ 222
etc 222
james 222
malaria 222
magic 222
dness 222
anywhere 222
solutions 222
allows 222
nä@@ 221
licht@@ 221
ät 221
kilometer 221
km 221
kaum 221
green@@ 221
flüs@@ 221
kunden 221
außerhalb 221
ph 221
menschen@@ 221
weight 221
contribu@@ 221
untersuchen 220
stü@@ 220
raus 220
wü@@ 220
freund@@ 220
kauf@@ 220
erin 220
tests 220
rob@@ 220
pen 220
kampf 220
maß@@ 220
islam@@ 220
divi@@ 220
conser@@ 220
draw 220
komplex@@ 219
bakterien 219
dan 219
leistung 219
600 219
herzustellen 219
wirkung 219
stro@@ 219
trifft 219
graph@@ 219
hum@@ 219
landes 219
fs 219
clean 219
photograph@@ 219
ited 219
driving 219
bau 218
erzählte 218
zunächst 218
invol@@ 218
ender 218
naja 218
99 218
george 218
performance 218
film@@ 218
weren 218
wood 218
nur@@ 218
related 218
emotional 218
wers 218
forest 218
robots 218
surgery 218
provide 218
decisions 218
jahr@@ 217
phil@@ 217
sel 217
hände 217
straßen 217
seines 217
sches 217
veran@@ 217
llen 217
sich@@ 217
tumor 217
freu@@ 217
thomas 217
depression 217
worten 217
schönheit 217
del 217
ror 217
gras@@ 217
dog 217
sustainable 217
train 217
intelligence 217
dangerous 217
critical 217
effective 217
cated 217
geln 216
hr 216
zell@@ 216
zy@@ 216
ky 216
auff@@ 216
tren@@ 216
au 216
heim@@ 216
september 216
ember 216
mier@@ 216
gerä@@ 216
boo@@ 216
ory 216
flying 216
sharing 216
schwan@@ 215
leider 215
wagen 215
letz@@ 215
dein 215
fertig 215
wirtschafts@@ 215
boys 215
2008 215
bezug 215
pass 215
feed 215
trade 215
ements 215
explor@@ 215
two-@@ 215
travel 215
conference 215
fuel 215
artist 215
walked 215
protect 215
none 215
remarkable 215
however 215
aware 215
teaching 215
politics 215
verkaufen 214
ttern 214
bürger@@ 214
ambi@@ 214
stände 214
schlechte 214
hinzu@@ 214
getroffen 214
anda 214
informa@@ 214
belo@@ 214
auswirkungen 214
ets 214
biologie 214
stick 214
diversity 214
legs 214
forming 214
whose 214
geschaffen 213
auen 213
geschlossen 213
inge 213
lag 213
äre 213
fähig 213
gehirn@@ 213
prof@@ 213
hör@@ 213
bild@@ 213
nicht-@@ 213
ep@@ 213
motor 213
ero@@ 213
religi@@ 213
mobile 213
scan@@ 213
foundation 213
sum 213
nap@@ 213
ai@@ 213
arts 213
rule 213
direction 213
current 213
exist 213
conversation 213
anymore 213
conc@@ 213
spitze 212
sat@@ 212
ca. 212
clim@@ 212
siert 212
heit@@ 212
wege 212
herausfinden 212
freude 212
sele@@ 212
eigenschaften 212
fläche 212
einzigen 212
syste@@ 212
mile 212
stream 212
gic 212
becoming 212
tz 211
uhr 211
bisher 211
unglaubliche 211
leidenschaft 211
kämp@@ 211
aktu@@ 211
organisationen 211
hat@@ 211
gehirns 211
bits 211
entation 211
scre@@ 211
irs 211
ek 211
whe@@ 211
stone 211
slide 211
scientist 211
brechen 210
erfahren 210
voraus@@ 210
erstens 210
bahn 210
letztes 210
extrem 210
som@@ 210
prototyp@@ 210
nigeria 210
ial 210
docum@@ 210
understood 210
schwar@@ 209
wichtigste 209
moral@@ 209
großartig 209
ing-@@ 209
dlichen 209
deswegen 209
abend 209
sex@@ 209
werkzeuge 209
jan@@ 209
flugzeug 209
suff@@ 209
block 209
frank@@ 209
sla@@ 209
tech 209
protein 209
passion 209
lations 209
ghts 209
genetic 209
practice 209
ktor 208
steckt 208
erneu@@ 208
studio 208
brü@@ 208
hoff@@ 208
finanzi@@ 208
lernte 208
glaub@@ 208
geräte 208
zeitpunkt 208
yer 208
track 208
mr. 208
experiments 208
robo@@ 208
ells 208
ring 208
thetic 208
lower 208
hed 208
cians 208
immediately 208
floor 208
pull 208
specific 208
subject 208
rund 207
dün@@ 207
hunderte 207
krankenhaus 207
zie@@ 207
chs@@ 207
profi@@ 207
leiden 207
held 207
konferenz 207
auge 207
af@@ 207
frie@@ 207
ehrlich 207
in-@@ 207
ads 207
services 207
environmental 207
function 207
increase 207
greatest 207
reach@@ 207
keiner 206
retten 206
fühlt 206
reaktion 206
ür@@ 206
schutz 206
bedingungen 206
heu@@ 206
kraft@@ 206
pel 206
sand@@ 206
stau@@ 206
scri@@ 206
offi@@ 206
chemical 206
occu@@ 206
enormous 206
markets 206
encoura@@ 206
erinnere 205
schil@@ 205
emotion@@ 205
tradition 205
führer 205
chtes 205
ever@@ 205
poten@@ 205
ann 205
schluss 205
währ@@ 205
ue 205
ham 205
typen 205
sac@@ 205
bac@@ 205
sorry 205
police 205
co 205
va 205
cold 205
networks 205
shared 205
decade 205
produced 205
speaking 205
vollen 204
spreche 204
mitten 204
vielfalt 204
sung 204
benutz@@ 204
schönen 204
blas@@ 204
westen 204
jer@@ 204
photograph 204
vac@@ 204
capit@@ 204
ately 204
sequence 204
conclu@@ 204
fuhr 203
aufgaben 203
regel@@ 203
erwarten 203
säu@@ 203
festi@@ 203
atlan@@ 203
univer@@ 203
krise 203
z.b. 203
thro@@ 203
195@@ 203
urban 203
some@@ 203
commit@@ 203
disappe@@ 203
raise 203
creativity 203
stattdessen 202
bewe@@ 202
inspiri@@ 202
stun@@ 202
status 202
netzwerk 202
luft@@ 202
ge-@@ 202
gent@@ 202
unterschiedliche 202
statt@@ 202
mehrere 202
kun@@ 202
lasst 202
rock 202
chair 202
assu@@ 202
following 202
forth 202
unden 201
veränderungen 201
unterschiede 201
erfü@@ 201
bat 201
sodass 201
jün@@ 201
nes 201
philosoph@@ 201
vorzu@@ 201
fern 201
mp 201
cas@@ 201
ong 201
keits@@ 201
tac@@ 201
fit 201
enter@@ 201
nel 201
recogni@@ 201
lights 201
matically 201
alism 201
forget 201
temperature 201
complete 201
television 201
forces 201
stär@@ 200
schützen 200
wikipedia 200
ebenfalls 200
erfolgreich 200
mente 200
glei@@ 200
fanta@@ 200
n-@@ 200
wirken 200
rechten 200
organis@@ 200
gefä@@ 200
beschrei@@ 200
darwin 200
adop@@ 200
comm@@ 200
survive 200
various 200
agree 200
gesellschaften 199
weite 199
nahe 199
grundle@@ 199
ganzes 199
profit 199
nehme 199
klima@@ 199
globale 199
nasa 199
mögliche 199
moder@@ 199
sische 199
hes 199
angefangen 199
tes@@ 199
mr@@ 199
strukturen 199
near 199
bly 199
unfortunately 199
essed 199
useful 199
inspired 199
played 199
geführt 198
lieb@@ 198
sse 198
kün@@ 198
zustellen 198
maßen 198
amp 198
van 198
verrückt 198
medikamente 198
regierungen 198
levels 198
birds 198
surro@@ 198
summer 198
unique 198
verbindungen 197
chter@@ 197
weib@@ 197
jahrzehn@@ 197
rufen 197
erfunden 197
prü@@ 197
öffentlichen 197
digung 197
elektro@@ 197
kostet 197
bäume 197
sprech@@ 197
ahnung 197
ruf 197
verein@@ 197
solar@@ 197
alisi@@ 197
fundament@@ 197
veröffent@@ 197
restaurant 197
bewer@@ 197
ep 197
final 197
discover 197
financial 197
classi@@ 197
path 197
evolved 197
ahead 197
doctors 197
conflict 197
trieb 196
geru@@ 196
jahrhunderts 196
experim@@ 196
event 196
bemerkens@@ 196
fen@@ 196
5,000 196
physik 196
union 196
sat 196
ana 196
rever@@ 196
moon 196
pris@@ 196
bringing 196
loved 196
possibly 196
recent 196
männ@@ 195
pfer@@ 195
produktion 195
soli@@ 195
gehe 195
konzentrieren 195
elles 195
hinder@@ 195
bren@@ 195
zeu@@ 195
deu@@ 195
leid 195
jene 195
plus 195
finan@@ 195
miert 195
gste 195
höch@@ 195
0 195
teams 195
öffnet 195
rü@@ 195
karten 195
brenn@@ 195
negative 195
sle@@ 195
element 195
actions 195
helped 195
chs 194
jemandem 194
schritte 194
verantwortung 194
büro 194
amer@@ 194
fes@@ 194
tate 194
alternative 194
phase 194
band@@ 194
schätzen 194
sis 194
genom@@ 194
pher@@ 194
steve 194
indian 194
consciousness 194
types 194
pair 194
funny 194
societies 194
geschafft 193
demokra@@ 193
jac@@ 193
trei@@ 193
guter 193
shel@@ 193
john@@ 193
harvard 193
unterstützen 193
tiv@@ 193
gere@@ 193
wichtigsten 193
ular 193
search 193
directly 193
institutions 193
mostly 193
effects 193
fabri@@ 192
ozean@@ 192
fres@@ 192
heutigen 192
instrument 192
hinein 192
75 192
dien@@ 192
erwä@@ 192
konsu@@ 192
einzigarti@@ 192
gender 192
fragt 192
herzen 192
hängt 192
institute 192
tausend 192
ol 192
behandeln 192
agi@@ 192
schlä@@ 192
tran@@ 192
note 192
mix@@ 192
apple 192
destro@@ 192
öko@@ 191
wohin 191
vin@@ 191
verk@@ 191
dische 191
extreme 191
detail 191
entlich 191
farben 191
ple 191
sign 191
stecken 190
francisco 190
nahme 190
kosten@@ 190
ärzte 190
lebte 190
tief 190
laptop 190
eigenes 190
englisch 190
sion@@ 190
robert 190
tür 190
fran@@ 190
california 190
ruhi@@ 190
evol@@ 190
ards 190
terror@@ 190
graph 190
exten@@ 190
industrial 190
obvious 190
heat 190
alization 190
regel 189
echte 189
größeren 189
erleben 189
institu@@ 189
intui@@ 189
erungen 189
anz 189
gie 189
schlu@@ 189
budget 189
nieder@@ 189
nü@@ 189
holt 189
verwand@@ 189
op 189
carto@@ 189
hir@@ 189
hero@@ 189
uring 189
sleep 189
workers 189
career 189
stance 189
below 189
ted-@@ 188
alismus 188
senden 188
privi@@ 188
bitten 188
digt 188
modelle 188
zweitens 188
glas@@ 188
ater 188
beu@@ 188
elli@@ 188
waffen 188
gefühle 188
ba 188
phi@@ 188
ams 188
afrikan@@ 188
hig@@ 188
onic 188
ological 188
capital 188
year-old 188
zur@@ 187
kern@@ 187
boot 187
by@@ 187
wild 187
trick 187
intelligent 187
erzeugt 187
wenden 187
work@@ 187
ler@@ 187
wenige 187
twitter 187
terrible 187
frieden@@ 187
vot@@ 187
challenges 187
daughter 187
focused 187
ette 186
geschah 186
entscheiden@@ 186
echt 186
winter 186
verbringen 186
gewä@@ 186
entfern@@ 186
entwicklungs@@ 186
tsch@@ 186
mond 186
sischen 186
fuß@@ 186
häuser 186
mand@@ 186
ii 186
appar@@ 186
anima@@ 186
2007 186
fortun@@ 186
ancient 186
circu@@ 186
term 186
bought 186
biological 186
governments 186
ließen 185
oten 185
rock@@ 185
valley 185
wechsel@@ 185
inspiration 185
größere 185
entscheidung 185
schte 185
gebe 185
brot 185
pic@@ 185
stir@@ 185
mili@@ 185
agre@@ 185
jam@@ 185
wee@@ 185
ping 185
laws 185
popular 185
ased 185
task 185
birth 185
capacity 185
explore 185
rieben 184
ände 184
brauchte 184
fängt 184
unterneh@@ 184
zieh@@ 184
freunden 184
wid@@ 184
erlauben 184
erfahrungen 184
sigkeit 184
entschied 184
fühlte 184
dar 184
wunsch 184
farm 184
fenster 184
ah@@ 184
materi@@ 184
ameras 184
seien 184
val 184
spec@@ 184
magne@@ 184
dep@@ 184
emer@@ 184
decision 184
eating 184
willing 184
decide 184
artists 184
frühen 183
blut@@ 183
inger 183
einkommen 183
folgendes 183
alter@@ 183
träge 183
alisierung 183
wahl@@ 183
agen@@ 183
modi@@ 183
twice 183
paid 183
expected 183
proto@@ 182
immer@@ 182
meters 182
konzentri@@ 182
attac@@ 182
enga@@ 182
zwan@@ 182
gliche 182
existiert 182
barkeit 182
c. 182
fügen 182
ink 182
unbe@@ 182
kei@@ 182
hunder@@ 182
loch 182
neuronen 182
chr@@ 182
islam 182
rain 182
habt 182
race 182
designers 182
character 182
communication 182
ologists 182
instance 182
turning 182
causes 182
gsten 181
verfügung 181
imag@@ 181
shir@@ 181
erstaunlich 181
fort 181
begonnen 181
mark@@ 181
genutzt 181
beeinflusst 181
kommunikation 181
greif@@ 181
weiss 181
bir@@ 181
achten 181
prob@@ 181
vorbei 181
stock 181
dest@@ 181
gold 181
dimensional 181
infrastructure 181
hot@@ 181
gst 181
pa 181
10,000 181
flu 181
yers 181
sphere 181
push 181
complexity 181
shed 181
purpose 181
erstes 180
anti-@@ 180
erstaun@@ 180
staat 180
berühm@@ 180
struk@@ 180
tag@@ 180
förder@@ 180
selts@@ 180
blau@@ 180
reak@@ 180
augen@@ 180
nungen 180
chin@@ 180
ami 180
link 180
ware 180
break@@ 180
cros@@ 180
plac@@ 180
predic@@ 180
carry 180
straight 180
enting 180
worry 180
spending 180
efficient 180
dying 180
closer 180
trial 180
pressure 180
küste 179
runter 179
prakti@@ 179
ef@@ 179
ität 179
gran@@ 179
produziert 179
mountain 179
promis@@ 179
wirtschaft@@ 179
00@@ 179
nissen 179
tritt 179
blä@@ 179
sicherlich 179
alle@@ 179
sucht 179
sa 179
lauf 179
schwi@@ 179
quote 179
secret 179
cell@@ 179
accu@@ 179
slightly 179
rema@@ 179
üs@@ 178
höhe 178
flexi@@ 178
sche@@ 178
river 178
losen 178
amerikanische 178
instal@@ 178
gate 178
subje@@ 178
acade@@ 178
regu@@ 178
prize 178
daß 178
bers 178
low-@@ 178
devices 178
charge 178
drop 178
ours 178
molecules 178
surprising 178
decades 178
diseases 178
wörter 177
passi@@ 177
gem 177
modernen 177
recht@@ 177
glaubt 177
bildungs@@ 177
nächstes 177
ji@@ 177
youtube 177
universi@@ 177
stal@@ 177
astero@@ 177
u.@@ 177
leg 177
spre@@ 177
cortex 177
16@@ 177
einhalb 177
sal 177
pon@@ 177
puzz@@ 177
gui@@ 177
ine@@ 177
address 177
ency 177
vering 177
komplexität 176
stücke 176
tolle 176
gelöst 176
gewebe 176
orien 176
zusammenhang 176
desto 176
zeug@@ 176
investieren 176
funk@@ 176
hart 176
dorthin 176
innen@@ 176
politischen 176
hte 176
nord@@ 176
brilliant 176
begeg@@ 176
feu@@ 176
ernst 176
que@@ 176
zug 176
citizens 176
kreativität 176
lets 176
adap@@ 176
cate 176
broken 176
garten 175
sekunde 175
bert 175
ecke 175
tochter 175
schafts@@ 175
infrastruktur 175
erinnert 175
besor@@ 175
integri@@ 175
ökonom@@ 175
drin@@ 175
inse@@ 175
schwester 175
manipu@@ 175
brie@@ 175
check 175
connec@@ 175
acting 175
quick 175
memory 175
descri@@ 175
baut 174
stie@@ 174
magazine 174
wirst 174
ungspro@@ 174
beteili@@ 174
politische 174
verfolgen 174
schrift 174
ries@@ 174
fuß 174
archi@@ 174
fernsehen 174
atmosphere 174
aro@@ 174
zone 174
2010 174
ech@@ 174
persön@@ 174
law@@ 174
nat@@ 174
tis@@ 174
dence 174
ority 174
degrees 174
answers 174
1,000 174
coffee 174
significant 174
educ@@ 174
published 174
trouble 174
linken 173
schutz@@ 173
fühl@@ 173
fühle 173
wach@@ 173
phili@@ 173
schien 173
entdeck@@ 173
cham@@ 173
wuchs 173
somit 173
zog 173
familien@@ 173
nähe 173
zierte 173
freien 173
hnt 173
predi@@ 173
impf@@ 173
weiterhin 173
zehn@@ 173
fäl@@ 173
chri@@ 173
unsicht@@ 173
orche@@ 173
impli@@ 173
pakistan 173
memor@@ 173
eding 173
calls 173
tremendous 173
reisen 172
gam@@ 172
ansatz 172
deutlich 172
ausbildung 172
miss@@ 172
ausdruck 172
feuer 172
corpo@@ 172
einfach@@ 172
teren 172
botschaft 172
wen 172
ening 172
tail 172
pati@@ 172
medium 172
hur@@ 172
achie@@ 172
rooms 172
apart 172
justice 172
supply 172
gehalten 171
esses 171
profession@@ 171
baum 171
stag 171
dea@@ 171
nütz@@ 171
effekt 171
designs 171
boston 171
feedback 171
kontrollieren 171
däch@@ 171
oxygen 171
affen 171
stron@@ 171
jon@@ 171
bridge 171
ples 171
hearing 171
conne@@ 171
const@@ 171
crimin@@ 171
passed 171
worst 171
wissenschaftliche 170
ermöglichen 170
bruch 170
zerstör@@ 170
smar@@ 170
budd@@ 170
gebäu@@ 170
pin@@ 170
interven@@ 170
rational 170
ear 170
edge 170
stuhl 170
speci@@ 170
assem@@ 170
suppor@@ 170
leads 170
counter@@ 170
creates 170
ungsk@@ 169
verur@@ 169
irgendwann 169
dire@@ 169
weiten 169
ück@@ 169
gelegt 169
ologi@@ 169
verursacht 169
bildern 169
bares 169
brown 169
engli@@ 169
gestal@@ 169
materie 169
sites 169
kreu@@ 169
riesigen 169
töten 169
werkzeug 169
verrück@@ 169
prot@@ 169
relevant 169
technologi@@ 169
ables 169
mming 169
nations 169
gradu@@ 169
tissue 169
electric 169
notion 169
collabor@@ 169
communicate 169
differences 169
improve 169
fying 169
sely 169
structures 169
trotz 168
haufen 168
stolz 168
toll@@ 168
trie@@ 168
tiver 168
offen 168
männern 168
gewonnen 168
benötigen 168
aut 168
erungs@@ 168
quelle 168
funktion 168
dok@@ 168
allerdings 168
universums 168
besonder@@ 168
wald 168
treib@@ 168
risiko 168
wärts 168
bestehen 168
tory 168
inno@@ 168
repe@@ 168
responsibility 168
organi@@ 168
stances 168
noticed 168
travel@@ 168
flies 168
gemeinde 167
fleisch 167
natürliche 167
problemen 167
verkauft 167
wächst 167
tür@@ 167
durchschnitt@@ 167
erwartet 167
aktivität 167
arme 167
dennoch 167
begriff 167
tei@@ 167
linien 167
gend@@ 167
kriegen 167
2005 167
vege@@ 167
portra@@ 167
laun@@ 167
gesetze 167
hotel 167
asia 167
bird 167
tle 167
fix 167
accep@@ 167
phenomenon 167
roten 166
epide@@ 166
de-@@ 166
rt 166
setzung 166
grenze 166
bot 166
stige 166
wiederum 166
dent@@ 166
kenne 166
reagieren 166
nerven@@ 166
ate@@ 166
haiti 166
einfacher 166
toler@@ 166
hall 166
imagination 166
massen@@ 166
pus@@ 166
insu@@ 166
farmers 166
organisms 166
seemed 166
cious 166
entstehen 165
willi@@ 165
vorberei@@ 165
dagegen 165
schaft@@ 165
vorstell@@ 165
kreis 165
hoffentlich 165
fotogra@@ 165
filme 165
paradig@@ 165
british 165
benötigt 165
sterne 165
marketing 165
tivität 165
direc@@ 165
inner 165
limit@@ 165
pose 165
&apos;@@ 165
meas@@ 165
helping 165
easily 165
colleagues 165
aufgenommen 164
bay 164
selber 164
letztendlich 164
dimension@@ 164
sozusagen 164
management 164
p-@@ 164
invest@@ 164
ingt 164
dopp@@ 164
erforschen 164
opti@@ 164
verbesser@@ 164
entwickelten 164
aufnahme 164
drü@@ 164
stands 164
thy 164
anten@@ 164
astronom@@ 164
gestalten 164
ists 164
ford 164
plo@@ 164
programs 164
planets 164
possibility 164
feels 164
corner 164
studying 164
religious 164
tially 164
ins@@ 163
klang 163
rhyth@@ 163
äuß@@ 163
städten 163
möglicherweise 163
las 163
republi@@ 163
blog 163
objekte 163
rad 163
14@@ 163
interpre@@ 163
cyber@@ 163
eis@@ 163
oth 163
fellow 163
deser@@ 163
centi@@ 163
mov@@ 163
giant 163
motion 163
shift 163
flight 163
consu@@ 163
nearly 163
necessarily 163
condition 163
ought 163
particles 163
achieve 163
deut@@ 162
standen 162
behalten 162
kehren 162
wahrscheinlichkeit 162
gebiete 162
religiö@@ 162
open-@@ 162
partner@@ 162
ade@@ 162
tradi@@ 162
scot@@ 162
.com 162
wide 162
post@@ 162
beschäftigt 162
erfin@@ 162
ele 162
davor 162
addi@@ 162
twi@@ 162
bo 162
quali@@ 162
defin@@ 162
brand 162
architec@@ 162
communic@@ 162
core 162
pounds 162
window 162
organizations 162
painting 162
pump@@ 161
met@@ 161
saß 161
onie 161
regen@@ 161
wom@@ 161
versorgung 161
dauert 161
gur@@ 161
atur 161
entlang 161
mol@@ 161
acht@@ 161
klimawandel 161
yl@@ 161
yle 161
process@@ 161
accoun@@ 161
shop 161
plu@@ 161
defen@@ 161
boat 161
return 161
landscape 161
figured 161
hair 161
beine 160
ckten 160
alien 160
sparen 160
forscher 160
chicago 160
bürger 160
wind@@ 160
nahrungs@@ 160
zurückzu@@ 160
ir 160
jahres 160
besser@@ 160
jährigen 160
einsatz 160
klingt 160
bia 160
symbo@@ 160
blog@@ 160
ela 160
rab@@ 160
rand@@ 160
bush 160
discovery 160
choices 160
bone 160
engine 160
throw 160
streets 160
civil 160
iraq 160
knowing 160
reduce 160
gelangen 159
laut 159
schwei@@ 159
21 159
beschle@@ 159
hunger 159
stad@@ 159
ar-@@ 159
fortschritt 159
verdienen 159
yn@@ 159
perspektive 159
atmosphäre 159
mach 159
moments 159
net@@ 159
vergleich 159
obama 159
xes 159
legal 159
dom 159
report 159
neighb@@ 159
finished 159
highly 159
lucky 159
fotografi@@ 158
fau@@ 158
dieselbe 158
plä@@ 158
soldaten 158
gressi@@ 158
süd@@ 158
lun@@ 158
produk@@ 158
lok@@ 158
zuhause 158
coo@@ 158
gedanke 158
aktivi@@ 158
finanz@@ 158
gress 158
gestern 158
hn 158
erstellen 158
todes@@ 158
pollen 158
einzi@@ 158
selb@@ 158
allo@@ 158
statisti@@ 158
coast 158
thir@@ 158
via 158
resol@@ 158
opportunities 158
nutri@@ 158
relationships 158
attemp@@ 158
dents 158
stopped 158
iled 158
necessary 158
moleküle 157
vollständig 157
train@@ 157
schlag@@ 157
herausgefunden 157
fiel 157
paris 157
gelassen 157
worüber 157
2-@@ 157
ändert 157
steuern 157
aufre@@ 157
intelligenz 157
forever 157
kräfte 157
g-@@ 157
dop@@ 157
puts 157
golf 157
rain@@ 157
port 157
tee 157
prison 157
yellow 157
versus 157
whi@@ 157
organic 157
benefit 157
consum@@ 157
interact 157
fication 157
lautet 156
brief 156
sommer 156
anth@@ 156
eline 156
gewi@@ 156
teen@@ 156
ücken 156
schalten 156
stress 156
jährige 156
bie@@ 156
verdi@@ 156
setzte 156
hirn@@ 156
geno@@ 156
temperatur 156
scheinen 156
ernsthaf@@ 156
großbritannien 156
erleb@@ 156
ya 156
iges 156
intensi@@ 156
fossi@@ 156
hai 156
exponenti@@ 156
ury 156
card 156
hell 156
arian 156
differently 156
missing 156
despite 156
organismen 155
bewegungen 155
kontrolli@@ 155
vollkommen 155
transformation 155
inti@@ 155
alisieren 155
zukünf@@ 155
zun@@ 155
experten 155
defini@@ 155
kür@@ 155
buchstäblich 155
rö@@ 155
rot 155
erfol@@ 155
stin 155
iel 155
origin@@ 155
ti 155
chaos 155
noise 155
obs@@ 155
ering 155
ior 155
custom@@ 155
foreign 155
respect 155
ultimately 155
brings 155
members 155
engage 155
lying 155
bled 155
themen 154
komm@@ 154
wesentlichen 154
steigt 154
verschie@@ 154
cool@@ 154
zusammenarbeit 154
kommunizieren 154
kurzem 154
untersu@@ 154
instin@@ 154
gli@@ 154
lungen 154
interface 154
ultra@@ 154
heili@@ 154
teilchen 154
extre@@ 154
spor@@ 154
ala 154
ager 154
darf 154
fach@@ 154
oll@@ 154
methoden 154
rus 154
strategi@@ 154
cker@@ 154
steh@@ 154
sitzt 154
kombin@@ 154
arms 154
00 154
russi@@ 154
bread 154
scen@@ 154
cial 154
effort 154
moves 154
ily 154
passionate 154
attack 154
betr@@ 153
kauft 153
jungs 153
zon 153
äf@@ 153
weiteren 153
colum@@ 153
phänomen 153
teste 153
durchgeführt 153
tauchen 153
schlie@@ 153
behandelt 153
stru@@ 153
gon@@ 153
räume 153
symptom@@ 153
berü@@ 153
gilt 153
monit@@ 153
gical 153
cloud 153
reve@@ 153
surge@@ 153
leading 153
join 153
mathematics 153
comfortable 153
visit 153
hielten 152
karriere 152
2009 152
meistens 152
unterstützung 152
fiziert 152
virg@@ 152
präsident 152
sogenan@@ 152
besseren 152
bezahlen 152
entwerfen 152
sozial@@ 152
2.@@ 152
landschaft 152
resul@@ 152
ania 152
assi@@ 152
ili@@ 152
lic@@ 152
tial 152
elements 152
dh 152
ght-@@ 152
absolute 152
tures 152
cide 152
covered 152
sculp@@ 152
fairly 152
lesson 152
benefits 152
agriculture 152
emotions 152
hinein@@ 151
meilen 151
wunderbare 151
unbedingt 151
wahre 151
kontakt 151
meister 151
anwen@@ 151
ens@@ 151
fix@@ 151
beeinflussen 151
tis 151
lichsten 151
zus@@ 151
virtual 151
theore@@ 151
fields 151
konfli@@ 151
urs 151
ologist 151
heads 151
ght@@ 151
electro@@ 151
base 151
calcul@@ 151
engineers 151
fashion 151
wisdom 151
helps 151
antly 151
tations 151
-year-old 151
veröffentlicht 150
besitzen 150
entwickelte 150
figu@@ 150
20. 150
setz@@ 150
kommuni@@ 150
gefängnis 150
kümmern 150
stufe 150
hohen 150
landwirtschaft 150
trauri@@ 150
starb 150
orienti@@ 150
19 150
nah 150
fragten 150
erkrank@@ 150
gras 150
u-@@ 150
happ@@ 150
vermutlich 150
ution 150
spä@@ 150
sahar@@ 150
polio 150
peter 150
walls 150
french 150
bees 150
titude 150
expla@@ 150
load 150
saving 150
bility 150
introdu@@ 150
emplo@@ 150
suffering 150
cation 150
contra@@ 150
ök@@ 149
spring 149
rief 149
stens 149
derzeit 149
klin@@ 149
zufällig 149
ome 149
vat@@ 149
ziele 149
begren@@ 149
lim@@ 149
mischen 149
motor@@ 149
asien 149
vermu@@ 149
welchen 149
krebs@@ 149
gy@@ 149
reicht 149
hauptsächlich 149
zung 149
ski@@ 149
diplo@@ 149
hard@@ 149
fähi@@ 149
supp@@ 149
ple@@ 149
mom@@ 149
fighting 149
engineer 149
mouse 149
wonder@@ 149
appreci@@ 149
bling 149
degree 149
afford 149
matters 149
cle 149
expec@@ 149
fold 149
shares 149
apply 149
typical 149
slowly 149
extin@@ 149
afraid 149
conscious 149
gelan@@ 148
rein 148
viren 148
ktionen 148
hergestellt 148
dritten 148
wandel 148
geschen@@ 148
arbeiter 148
laufe 148
milliarde 148
kontro@@ 148
experimente 148
alisiert 148
titel 148
reas@@ 148
photo 148
geschi@@ 148
isra@@ 148
charak@@ 148
nochmal 148
geschä@@ 148
events 148
schwarze 148
og@@ 148
organ 148
gift 148
olymp@@ 148
sir 148
expres@@ 148
ath 148
3d 148
traffic 148
gun 148
crime 148
mothers 148
female 148
concent@@ 148
filled 148
responsible 148
billions 148
adults 148
creatures 148
sity 148
jung@@ 147
irgendetwas 147
arm@@ 147
schicht 147
priv@@ 147
perfekt 147
tierte 147
tie@@ 147
pharma@@ 147
recei@@ 147
gezogen 147
großteil 147
adam 147
tricks 147
konstru@@ 147
uganda 147
entsteht 147
yn 147
kehr@@ 147
s. 147
chromo@@ 147
norden 147
investment 147
tim 147
ish@@ 147
suit 147
brother 147
raised 147
mengen 146
weiteres 146
phen 146
beschreiben 146
bekannten 146
atz 146
gegensei@@ 146
geschle@@ 146
broad@@ 146
hohe 146
color@@ 146
vergleichen 146
überzeugt 146
home@@ 146
graben 146
gelesen 146
bü@@ 146
überzeugen 146
gab@@ 146
dient 146
zierten 146
vö@@ 146
umgehen 146
aktiv 146
fung 146
2,@@ 146
habit@@ 146
zuhören 146
außen@@ 146
are@@ 146
iphone 146
roll 146
simul@@ 146
mexico 146
nel@@ 146
ison 146
lot@@ 146
warm 146
separ@@ 146
gentle@@ 146
ves@@ 146
lady 146
chip 146
cheap 146
constru@@ 146
competition 146
capable 146
compar@@ 146
begins 146
fascinating 146
calcu@@ 146
alize 146
autis@@ 145
leb@@ 145
mitg@@ 145
lass 145
stig 145
elten 145
and-@@ 145
noten 145
stür@@ 145
betrifft 145
thri@@ 145
sy 145
älter 145
neugi@@ 145
gation 145
ki 145
woher 145
ace 145
dry 145
activ@@ 145
sick 145
simpli@@ 145
identity 145
statistics 145
fill 145
sector 145
distance 145
experiences 145
influence 145
easier 145
hopefully 145
vast 145
caught 145
ried 145
wissenschaftlichen 144
pyrami@@ 144
ota 144
texas 144
gif@@ 144
endet 144
neuer 144
ständen 144
morgens 144
täglich 144
motivation 144
behand@@ 144
stopp@@ 144
schö@@ 144
hell@@ 144
zig 144
vern@@ 144
institution 144
unterschiedlichen 144
gren@@ 144
dio@@ 144
gewissen 144
nega@@ 144
erenden 144
rup@@ 144
poly@@ 144
wr@@ 144
hou@@ 144
cont@@ 144
diam@@ 144
embra@@ 144
impres@@ 144
duc@@ 144
facili@@ 144
colors 144
contro@@ 144
respond 144
leaving 144
holding 144
profound 144
mär@@ 143
kenn@@ 143
lieber 143
verbracht 143
wohner 143
bett 143
zeugen 143
präsentiert 143
übertragen 143
rahmen 143
verhindern 143
lernt 143
wirtschaftlichen 143
trend 143
erende 143
gehei@@ 143
werten 143
astro@@ 143
brachten 143
uner@@ 143
kurze 143
vertei@@ 143
unabhängi@@ 143
elemente 143
herunter@@ 143
erster 143
lou@@ 143
dritt@@ 143
quanti@@ 143
th-@@ 143
korea 143
basiert 143
separate 143
rid 143
circle 143
ai 143
mouth 143
wit@@ 143
quie@@ 143
galaxy 143
kid@@ 143
spirit 143
2,000 143
compe@@ 143
meat 143
promise 143
anderem 142
ome@@ 142
könnt 142
stö@@ 142
dieren 142
tue 142
fordert 142
dahin 142
werke 142
drittel 142
teu@@ 142
erkannte 142
zin 142
begeistert 142
fischen 142
25@@ 142
ites 142
stoßen 142
post 142
gefahr 142
toi@@ 142
grand 142
tradition@@ 142
nee 142
weder 142
flächen 142
stein@@ 142
dank@@ 142
spli@@ 142
fif@@ 142
pingu@@ 142
concep@@ 142
breast 142
desert 142
church 142
kee@@ 142
economics 142
tting 142
mates 142
tured 142
enjoy 142
vement 142
powered 142
yo 141
mütter 141
sowie 141
juli@@ 141
arbeiteten 141
buch@@ 141
gerü@@ 141
neten 141
nom@@ 141
wunderbar 141
handel 141
technolog@@ 141
theit 141
mail 141
gespielt 141
hinweg 141
absor@@ 141
proble@@ 141
steller 141
progra@@ 141
anten 141
count 141
normale 141
spiegel 141
lig 141
aufnahmen 141
insekten 141
außer@@ 141
falsche 141
allge@@ 141
schwimmen 141
atem@@ 141
symbol 141
22 141
einsetzen 141
ite 141
plane 141
ritual 141
determin@@ 141
names 141
sequen@@ 141
jum@@ 141
aci@@ 141
pig@@ 141
campaign 141
dreams 141
shouldn 141
offer 141
sold 141
describe 141
studied 141
speech 141
otherwise 141
importantly 141
trained 141
paint 141
measu@@ 141
brauchten 140
bi 140
brust@@ 140
hintergrund 140
kennt 140
klassen@@ 140
bildschirm 140
wachen 140
sichten 140
indu@@ 140
diabetes 140
mix 140
echten 140
netzwerke 140
erzähle 140
27 140
dürfen 140
gelei@@ 140
errei@@ 140
scha@@ 140
verbreitet 140
häl@@ 140
gerung 140
gkeiten 140
2004 140
dicht 140
telescop@@ 140
krimin@@ 140
art@@ 140
derek 140
belief 140
shar@@ 140
wear 140
invisible 140
insects 140
normally 140
occur@@ 140
cele@@ 140
invest 140
ologe 139
häu@@ 139
starke 139
fund 139
griff 139
mitteln 139
intelligen@@ 139
sterb@@ 139
int 139
malen 139
entwickl@@ 139
patent 139
ungskraft 139
institutionen 139
spac@@ 139
führten 139
verlangen 139
mel 139
beach 139
arc@@ 139
spir@@ 139
beat 139
universal 139
email 139
lic 139
challen@@ 139
catch 139
independent 139
wave 139
consumption 139
sudden 139
aling 139
warming 139
principles 139
therapy 139
sister 139
blei@@ 138
graphi@@ 138
kön@@ 138
kolle@@ 138
büro@@ 138
lebten 138
fördern 138
gens 138
ktiv 138
praktisch 138
großarti@@ 138
akt 138
stenz 138
zauber@@ 138
strö@@ 138
schri@@ 138
volu@@ 138
dungs@@ 138
lachen 138
letzt 138
behör@@ 138
95 138
stimu@@ 138
tus 138
sor 138
geogra@@ 138
bee@@ 138
tem@@ 138
ishing 138
airplane 138
camp 138
damage 138
factory 138
placed 138
inci@@ 138
speak@@ 138
molecule 138
steps 138
everyday 138
seriously 138
erweiter@@ 137
schlei@@ 137
gewisse 137
forschungs@@ 137
itäten 137
bauern 137
dene 137
inn 137
hund 137
eingesetzt 137
bereiche 137
dichte 137
tiefe 137
gabe 137
tons 137
kompon@@ 137
isch@@ 137
wurz@@ 137
fit@@ 137
zeitalter 137
infin@@ 137
sky@@ 137
elegan@@ 137
compli@@ 137
disco@@ 137
creation 137
lack 137
bf 137
dolph@@ 137
civilization 137
professional 137
entirely 137
operating 137
languages 137
opposite 137
transform 137
nannte 136
rücken 136
vermögen 136
fingen 136
ungewöhn@@ 136
ld 136
richtet 136
kers 136
gehabt 136
geld@@ 136
geladen 136
dienst@@ 136
glas 136
cken@@ 136
angel@@ 136
blut 136
hmen 136
controll@@ 136
analysis 136
une 136
option 136
master 136
frank 136
appli@@ 136
emotion 136
bles 136
worl@@ 136
dp 136
cers 136
spot 136
stuck 136
limited 136
jud@@ 136
keeping 136
yesterday 136
func@@ 136
husband 136
small@@ 136
ception 136
raus@@ 135
spit@@ 135
verwandeln 135
erfolgrei@@ 135
ktiven 135
zubringen 135
geburt 135
bestimmen 135
kogni@@ 135
recycl@@ 135
menten 135
schaute 135
herr 135
interessieren 135
geheim@@ 135
alleine 135
ene@@ 135
kürzlich 135
fell 135
samer 135
match 135
kni@@ 135
integra@@ 135
drän@@ 135
reli@@ 135
photos 135
emergen@@ 135
invi@@ 135
player 135
distribu@@ 135
poster 135
dynamic 135
cis@@ 135
tain@@ 135
commercial 135
background 135
acceler@@ 135
viruses 135
argue 135
concerned 135
deliver 135
article 135
atta@@ 135
desire 135
principle 135
ference 135
fett@@ 134
inen 134
sichtlich 134
wahrnehmung 134
wirkt 134
verzwei@@ 134
tot@@ 134
1. 134
kalifornien 134
leistungen 134
herausforderungen 134
sweise 134
träume 134
knochen 134
versuchten 134
glücklicherweise 134
esse 134
2006 134
mid@@ 134
einander@@ 134
täten 134
behinder@@ 134
sorge 134
kurz@@ 134
ograph@@ 134
schlimm@@ 134
standar@@ 134
ierten 134
olog@@ 134
automo@@ 134
gehirne 134
verbreiten 134
winkel 134
ägyp@@ 134
65 134
10.000 134
ough 134
autor@@ 134
janu@@ 134
propor@@ 134
therapie 134
blick@@ 134
fing@@ 134
viet@@ 134
clou@@ 134
free@@ 134
getötet 134
partici@@ 134
play@@ 134
qua@@ 134
tural 134
believed 134
opened 134
managed 134
deeply 134
advantage 134
hate 134
opini@@ 134
horri@@ 134
designing 134
toward 134
gehören 133
lichem 133
ko 133
liebt 133
pfei@@ 133
händen 133
mäß@@ 133
telefon 133
disku@@ 133
irak 133
fährt 133
angeles 133
tnis 133
verantwortlich 133
bekamen 133
ähnliche 133
bemerkt 133
zählen 133
aug@@ 133
erklär@@ 133
hang 133
wenig@@ 133
nah@@ 133
stit@@ 133
sport 133
wichti@@ 133
platt@@ 133
gebro@@ 133
nets 133
deckt 133
ories 133
vir@@ 133
atten@@ 133
anony@@ 133
ok@@ 133
stung 133
dium 133
abhängig 133
gese@@ 133
bol@@ 133
umge@@ 133
forma@@ 133
erstaunliche 133
dinner 133
opfer 133
treibt 133
ingu@@ 133
tomorrow 133
narra@@ 133
electrical 133
pages 133
spaces 133
letter 133
oceans 133
whenever 133
followed 133
childhood 133
equal 133
majority 133
predict 133
exhi@@ 133
failed 133
increasingly 133
evil 133
wahren 132
streben 132
bauten 132
moderne 132
vertrau@@ 132
öffentlichkeit 132
dienen 132
erkenntnis 132
spruch 132
nes@@ 132
yor@@ 132
aufhören 132
aner 132
drin 132
chemi@@ 132
dialo@@ 132
fünf@@ 132
gere 132
eland 132
elektron@@ 132
gewand@@ 132
vögel 132
teilung 132
sensi@@ 132
doppelt 132
insel 132
babys 132
influ@@ 132
edu@@ 132
voices 132
cer 132
ills 132
organized 132
driven 132
surprise 132
generate 132
thinks 132
opening 132
tiges 131
gates 131
23 131
vo 131
kung 131
berg@@ 131
nutzt 131
tigung 131
legi@@ 131
2003 131
pus 131
cen 131
weißt 131
chten@@ 131
stigen 131
genauer 131
kus@@ 131
impul@@ 131
oxford 131
weißen 131
tent@@ 131
maus 131
kontext 131
origami 131
maker 131
rand 131
ald 131
adi@@ 131
trip 131
post-@@ 131
bloß 131
stian 131
secon@@ 131
vice 131
sw 131
direct 131
random 131
entreprene@@ 131
soil 131
due 131
whom 131
perfectly 131
wealth 131
constantly 131
according 131
wearing 131
participa@@ 131
wachsen@@ 130
äne 130
künstler@@ 130
rechts@@ 130
handy 130
überrascht 130
robot@@ 130
bedeuten 130
eindruck 130
schmerz 130
inspiriert 130
atures 130
gemü@@ 130
tern@@ 130
kurs 130
trie 130
mut 130
sign@@ 130
erseits 130
ameisen 130
klini@@ 130
überprü@@ 130
geschickt 130
zeichnungen 130
tischer 130
humor 130
meta@@ 130
cents 130
heits@@ 130
l-@@ 130
brow@@ 130
chap@@ 130
militär@@ 130
prop@@ 130
kins 130
phan@@ 130
guar@@ 130
jump 130
signals 130
ery 130
heal@@ 130
seas@@ 130
transition 130
graduate 130
define 130
care@@ 130
drawing 130
cognitive 130
approach@@ 130
prevent 130
failure 130
practic@@ 130
survival 130
fourth 130
europä@@ 129
dauern 129
normalen 129
unternehmer 129
erer 129
ön@@ 129
isol@@ 129
navi@@ 129
stock@@ 129
194@@ 129
lieblings@@ 129
miss 129
privat@@ 129
polizei 129
signale 129
ppt 129
sim@@ 129
kurzen 129
ansicht 129
2001 129
öffentliche 129
stimm@@ 129
sty 129
gegenteil 129
früh 129
bezahlt 129
beeindruck@@ 129
wisst 129
martin 129
motiv@@ 129
emis@@ 129
ghana 129
journalist 129
interagieren 129
gry 129
bag@@ 129
equivalent 129
volunte@@ 129
shif@@ 129
currently 129
compare 129
harder 129
unless 129
dimensions 129
secre@@ 129
corruption 129
erst@@ 128
wiesen 128
verschwinden 128
lebewesen 128
goo@@ 128
verhältnis 128
körpers 128
bienen 128
grün 128
stabili@@ 128
leadership 128
zten 128
250 128
alisten 128
athei@@ 128
läch@@ 128
library 128
normal@@ 128
probe 128
wa 128
schaf@@ 128
gefahren 128
eure 128
diagra@@ 128
roots 128
friend@@ 128
cans 128
gather@@ 128
producing 128
metaphor 128
classroom 128
explan@@ 128
ordinary 128
aufbauen 127
ernährung 127
raft 127
markt@@ 127
verwal@@ 127
army 127
wegs 127
mindestens 127
fahrer 127
verbindet 127
identität 127
tanz 127
lear@@ 127
iso@@ 127
erklärung 127
starten 127
deinen 127
digit@@ 127
erscheinen 127
syl@@ 127
chil@@ 127
gesetz@@ 127
barer 127
microsoft 127
blogs 127
photo@@ 127
bietet 127
gespräch 127
schlüssel@@ 127
illusion 127
cel@@ 127
mie 127
stran@@ 127
cky 127
gay 127
wake 127
leaves 127
cular 127
experts 127
galaxies 127
affect 127
verschmu@@ 126
fisch@@ 126
drink 126
verkauf@@ 126
akzep@@ 126
d. 126
haltung 126
kopf@@ 126
ktive 126
lichkeiten 126
vorteil 126
stent 126
seitdem 126
ffe@@ 126
häufig 126
horizon@@ 126
existieren 126
sphäre 126
gesprä@@ 126
gäbe 126
mee 126
d.@@ 126
brauche 126
individuen 126
harmon@@ 126
meiste 126
sauerstoff 126
grundlegende 126
persönliche 126
chts 126
gestorben 126
sicherheits@@ 126
konzep@@ 126
verhaltens@@ 126
worldwide 126
werbung 126
tour 126
an-@@ 126
admini@@ 126
musst 126
one@@ 126
terie 126
shall 126
lunch 126
distribution 126
keys 126
steel 126
actor 126
rural 126
caused 126
invited 126
weird 126
tough 126
exists 126
treated 126
gain 126
worried 126
succe@@ 126
32 125
anrei@@ 125
schreib@@ 125
japan@@ 125
fizieren 125
angenommen 125
pfe 125
pet 125
hoffen 125
unterscheiden 125
autonom@@ 125
stanford 125
gegensatz 125
tur 125
generationen 125
reduzieren 125
h-@@ 125
schlechten 125
verschieden@@ 125
höher 125
sz@@ 125
temper@@ 125
erfinden 125
spra@@ 125
erhält 125
orig@@ 125
tzlich 125
baum@@ 125
ulti@@ 125
standards 125
appl@@ 125
enz@@ 125
kenya 125
sever@@ 125
pes 125
wars 125
nant 125
multiple 125
garden 125
holes 125
activi@@ 125
seat 125
hidden 125
suppose 125
continent 125
artificial 125
paying 125
shapes 125
compared 125
debate 125
krank 124
blü@@ 124
krank@@ 124
äd@@ 124
komplexe 124
inneren 124
chron@@ 124
schnell@@ 124
gieren 124
trends 124
anthropo@@ 124
kus 124
regen 124
strategie 124
leiten 124
schlüssel 124
chem 124
augenblick 124
igkeit 124
lager 124
best@@ 124
wein@@ 124
kulturen 124
berührt 124
fernseh@@ 124
rätsel 124
trug 124
einheit 124
han 124
debat@@ 124
echn@@ 124
real@@ 124
innovative 124
skep@@ 124
refer@@ 124
gand@@ 124
shoes 124
canada 124
eleph@@ 124
european 124
construction 124
wri@@ 124
threat 124
vehicle 124
double 124
japanese 124
hasn 124
unding 124
oned 124
negoti@@ 124
layer 124
planning 124
businesses 124
weapons 124
marine 123
märkte 123
einiger 123
arkti@@ 123
beg@@ 123
nachbar@@ 123
welle 123
wis@@ 123
doku@@ 123
beob@@ 123
arbeit@@ 123
beschäf@@ 123
heisst 123
benen 123
blau 123
mmen 123
abschluss 123
ay 123
drückt 123
unterschie@@ 123
brech@@ 123
beginn@@ 123
eric 123
nieman@@ 123
musik@@ 123
kari@@ 123
ols 123
toren 123
lebenden 123
gegenwär@@ 123
itä@@ 123
geome@@ 123
manhattan 123
täusch@@ 123
mobili@@ 123
anischen 123
klar@@ 123
deta@@ 123
fan 123
relativ 123
schni@@ 123
tenden@@ 123
joy 123
super 123
fire@@ 123
-up 123
contr@@ 123
acts 123
20th 123
näher@@ 123
embar@@ 123
establi@@ 123
blocks 123
bright 123
develop@@ 123
cure 123
bed@@ 123
waves 123
expression 123
wea@@ 123
chemicals 123
appro@@ 123
represent 123
sec@@ 123
copy 123
circum@@ 123
thesis 123
appear 123
muscle 123
neighborhood 123
dä@@ 122
popu@@ 122
melt 122
systemen 122
faktor 122
bekann@@ 122
ration@@ 122
schneiden 122
wichtigen 122
syndro@@ 122
annehmen 122
züge 122
alex@@ 122
forder@@ 122
nationen 122
beweg@@ 122
parti@@ 122
interview 122
wobei 122
mobil@@ 122
entschei@@ 122
zunehmen@@ 122
nden 122
emotionen 122
riff 122
jugend@@ 122
hmt 122
nest 122
sequenzen 122
elling 122
sna@@ 122
bet 122
nai@@ 122
collective 122
tumor@@ 122
phosp@@ 122
than@@ 122
weather 122
coura@@ 122
collect 122
pre-@@ 122
proud 122
preser@@ 122
strategy 122
mortality 122
described 122
strate 122
bear 122
highest 122
facts 122
mentioned 122
transl@@ 122
incre@@ 122
wenigen 121
tox@@ 121
wunden 121
holz 121
kap@@ 121
drüben 121
spüren 121
dran 121
brasili@@ 121
bedarf 121
soviel 121
entspricht 121
anwenden 121
quellen 121
beschrän@@ 121
schmerzen 121
beglei@@ 121
besondere 121
worfen 121
internet@@ 121
bahn@@ 121
sitz@@ 121
upp@@ 121
cock@@ 121
nett 121
kunft 121
vorfahren 121
architekten 121
notwen@@ 121
dach 121
experiment@@ 121
sheit 121
alist 121
dul@@ 121
wechseln 121
gefährlich 121
crow@@ 121
four@@ 121
mas 121
chicken 121
pole 121
sub-@@ 121
brothers 121
britain 121
proce@@ 121
generations 121
grown 121
alists 121
vote 121
chemistry 121
dinosaurs 121
honest 121
feelings 121
houses 121
konser@@ 120
stoffen 120
stammt 120
ox@@ 120
entdeckung 120
clip 120
genau@@ 120
nde 120
bruder 120
ernä@@ 120
issen 120
flug 120
26 120
bell 120
gessen 120
rechen@@ 120
unterricht 120
element@@ 120
frag@@ 120
howard 120
bein@@ 120
verfügbar 120
olo@@ 120
regionen 120
politiker 120
associated 120
klär@@ 120
mon 120
dow 120
epi@@ 120
tie 120
cape 120
letters 120
fossil 120
transi@@ 120
ug@@ 120
associ@@ 120
kb 120
thers 120
clinical 120
fat 120
emerging 120
closed 120
percei@@ 120
discipl@@ 120
microscop@@ 120
characteri@@ 120
violent 120
interaction 120
angeb@@ 119
solch 119
aufgebaut 119
persönlichen 119
bs@@ 119
schaden 119
ville 119
kit@@ 119
langwei@@ 119
fantastisch 119
dutz@@ 119
mittleren 119
stab@@ 119
schuhe 119
persönlich 119
bank@@ 119
40@@ 119
kts 119
rapi@@ 119
nötig 119
bestand 119
od 119
angeneh@@ 119
bedürf@@ 119
dies@@ 119
inner@@ 119
definieren 119
rin@@ 119
wild@@ 119
wechsel 119
trinken 119
entertain@@ 119
messer 119
bemer@@ 119
zuschau@@ 119
schlimmer 119
therap@@ 119
leiden@@ 119
saturn 119
butt@@ 119
witz 119
key@@ 119
life@@ 119
windows 119
perman@@ 119
woo@@ 119
terrori@@ 119
optimis@@ 119
spectrum 119
wired 119
glam@@ 119
transplan@@ 119
department 119
disaster 119
chain 119
heavy 119
launched 119
survi@@ 119
forced 119
erscheint 118
schmu@@ 118
pft 118
wunder 118
cambridge 118
nungs@@ 118
begri@@ 118
fän@@ 118
atten 118
städ@@ 118
potenzi@@ 118
nachbarn 118
nas@@ 118
vergan@@ 118
schwä@@ 118
andre@@ 118
schrift@@ 118
programme 118
feuer@@ 118
gross@@ 118
mung 118
dliche 118
aspekt 118
grundsätzlich 118
expedi@@ 118
iden@@ 118
beweise 118
verfü@@ 118
tiker 118
blatt 118
addition 118
psycho@@ 118
entschul@@ 118
marki@@ 118
killing 118
die@@ 118
dinosaurier 118
jack 118
notwendig 118
mountains 118
equipment 118
sprach@@ 118
leader 118
genom 118
21@@ 118
fie 118
100,000 118
lock 118
migra@@ 118
gul@@ 118
rates 118
lec@@ 118
molecular 118
resource 118
tles 118
wra@@ 118
tch 118
bine 118
celebra@@ 118
democratic 118
oning 118
technical 118
losing 118
married 118
intellectual 118
announ@@ 118
poor@@ 118
ading 118
shoul@@ 118
natürlichen 117
initiative 117
bende 117
erkennt 117
gerechtigkeit 117
toile@@ 117
alp@@ 117
ersetzen 117
wirtschaftliche 117
coal 117
schmer@@ 117
verbrachte 117
ket 117
medizinische 117
lebenser@@ 117
unabhängig 117
parado@@ 117
verg@@ 117
well@@ 117
richtungen 117
stur@@ 117
ille 117
bibliothe@@ 117
digitalen 117
stil 117
patri@@ 117
massi@@ 117
verfahren 117
digkeit 117
straßen@@ 117
steine 117
tili@@ 117
springen 117
traditionellen 117
aku@@ 117
sende 117
galaxien 117
galaxie 117
bestimm@@ 117
folgende 117
dimensionen 117
scan 117
rio 117
helden 117
taste 117
korruption 117
ckets 117
amin@@ 117
organs 117
cau@@ 117
daily 117
amo@@ 117
gling 117
pleasure 117
northern 117
remote 117
trials 117
movies 117
practical 117
grandmother 117
coral 117
consequences 117
südafri@@ 116
berühr@@ 116
gesp@@ 116
angesehen 116
kindheit 116
bedeuten@@ 116
diert 116
mexiko 116
entstanden 116
zerstören 116
lem 116
git@@ 116
mikrosk@@ 116
baute 116
bereichen 116
buchstab@@ 116
veränder@@ 116
schrän@@ 116
bang 116
black@@ 116
restaurants 116
700 116
jo 116
swa@@ 116
lee 116
aring 116
cour@@ 116
contact 116
advanced 116
ize 116
sight 116
smell 116
awful 116
surprised 116
abilities 116
avoid 116
conf@@ 116
sexual 116
enjo@@ 116
roughly 116
teeth 116
homes 116
erlebt 115
chol@@ 115
wellen 115
überzeu@@ 115
talent 115
schau 115
beschei@@ 115
zir@@ 115
stech@@ 115
pf 115
gles 115
alli@@ 115
elektrizität 115
bevölker@@ 115
tedx@@ 115
maga@@ 115
euer 115
800 115
schiff 115
5.000 115
mund 115
halbe 115
hängen 115
konkur@@ 115
tausenden 115
stac@@ 115
substan@@ 115
florida 115
teuer 115
krä@@ 115
höre 115
feststellen 115
simu@@ 115
bemü@@ 115
kilometers 115
usi@@ 115
grab@@ 115
dens 115
spu@@ 115
spielte 115
market@@ 115
express 115
v-@@ 115
deter@@ 115
proteins 115
account 115
prime 115
3,000 115
reci@@ 115
makers 115
sad 115
setting 115
vable 115
importance 115
cultures 115
occasi@@ 115
users 115
condu@@ 115
cially 115
affected 115
mittler@@ 114
zuge@@ 114
pacific 114
afrikanischen 114
zit@@ 114
spen@@ 114
tzu@@ 114
vermitteln 114
intuition 114
gegend 114
zerstört 114
hinsicht 114
müll 114
hörten 114
infor@@ 114
präsi@@ 114
radik@@ 114
studieren 114
display 114
tony 114
viertel 114
lossen@@ 114
präsentation 114
untersucht 114
erter 114
zon@@ 114
anderth@@ 114
hilfs@@ 114
leistungs@@ 114
gö@@ 114
wissenschaften 114
inspi@@ 114
westlichen 114
club 114
aufen 114
pho@@ 114
beschäftigen 114
contain@@ 114
lux@@ 114
ale@@ 114
mo 114
drück@@ 114
beantworten 114
besuchen 114
nin@@ 114
cil 114
colli@@ 114
wire 114
angle 114
reaction 114
advan@@ 114
essential 114
selling 114
soldiers 114
accident 114
lessons 114
dealing 114
meaning@@ 114
controlled 114
wine 114
beein@@ 113
anhand 113
hinten 113
dunkel@@ 113
ologische 113
mäßig 113
beschlossen 113
gefallen 113
streng@@ 113
a. 113
gemeinden 113
user 113
wachst@@ 113
mern 113
skla@@ 113
müsste 113
flas@@ 113
beobachtet 113
ärm@@ 113
löcher 113
klo@@ 113
weit@@ 113
ermu@@ 113
äs@@ 113
kaffee 113
langer 113
quasi 113
jähri@@ 113
basier@@ 113
alzheimer 113
gan 113
acci@@ 113
papi@@ 113
relative 113
sey 113
gleichheit 113
50@@ 113
kro@@ 113
fab@@ 113
vas@@ 113
ht@@ 113
honor 113
ption 113
inning 113
illness 113
horse 113
graphic 113
thoughts 113
unds 113
hero 113
regular 113
hadn 113
affec@@ 113
possibilities 113
stood 113
prove 113
section 113
molekul@@ 112
paraly@@ 112
repar@@ 112
atmen 112
welchem 112
sci@@ 112
gebeten 112
wahn@@ 112
aufzubauen 112
bronx 112
transport 112
lässi@@ 112
winden 112
lehren 112
null 112
zweck 112
motivi@@ 112
onal 112
konfron@@ 112
é@@ 112
hlte 112
lektion 112
jes@@ 112
pag@@ 112
brücke 112
hnung 112
schme@@ 112
erfindung 112
ut 112
kehrt 112
itali@@ 112
jähr@@ 112
teure 112
evolution@@ 112
zeitung 112
jedenfalls 112
geschü@@ 112
verkehr@@ 112
eur@@ 112
vergröß@@ 112
wähl@@ 112
biot@@ 112
bä@@ 112
charakter 112
vorstellungen 112
wesentlich 112
analog@@ 112
bby 112
dir@@ 112
sets 112
ric 112
ination 112
protection 112
radical 112
gravity 112
productive 112
categ@@ 112
researchers 112
preg@@ 112
property 112
long-term 112
underneath 112
whereas 112
effectively 112
finish 112
empty 112
australia 112
cards 112
rote 111
antibio@@ 111
chemikalien 111
block@@ 111
zivilisation 111
silicon 111
online-@@ 111
täu@@ 111
seln 111
geändert 111
pfle@@ 111
strom@@ 111
verlust 111
dunkl@@ 111
ktes 111
werken 111
dienst 111
entdeckte 111
erforsch@@ 111
schließ@@ 111
ssi@@ 111
eres 111
faktoren 111
initi@@ 111
kapu@@ 111
tanz@@ 111
komplex 111
kerl 111
ziel@@ 111
lasse 111
entworfen 111
tigte 111
ush 111
differ@@ 111
freiwilli@@ 111
thin@@ 111
maps 111
primi@@ 111
konflikt 111
statistiken 111
ct@@ 111
who@@ 111
wirklichen 111
gall@@ 111
existi@@ 111
minim@@ 111
cross 111
harv@@ 111
stics 111
cin 111
abra@@ 111
afri@@ 111
aw@@ 111
intern@@ 111
dots 111
clock 111
mathematical 111
platform 111
round 111
breath 111
aming 111
adult 111
arrived 111
orders 111
nervous 111
solved 111
specifically 111
pleas@@ 111
suggest 111
metal 111
sser 110
saal 110
berichten 110
ce-@@ 110
folie 110
junger 110
verkehr 110
run@@ 110
menschlicher 110
beweisen 110
biert 110
sation 110
nutzung 110
bedürfnisse 110
mitglieder 110
von@@ 110
presse 110
selten 110
zusätz@@ 110
ökon@@ 110
lediglich 110
stärke 110
zte 110
woll@@ 110
enzy@@ 110
tot 110
gramm 110
verab@@ 110
bakteri@@ 110
lustig 110
erwähnt 110
barri@@ 110
repu@@ 110
any@@ 110
gesundheitswesen 110
kreieren 110
nigeri@@ 110
steven 110
revolution@@ 110
stant 110
geor@@ 110
orbit 110
plans 110
atory 110
requi@@ 110
oral 110
wings 110
demand 110
calling 110
picked 110
variety 110
sophisti@@ 110
magni@@ 110
saved 110
curious 110
civili@@ 110
spoke 110
sharks 110
magnetic 110
sugar 110
stärker 109
gelen@@ 109
bein 109
teilneh@@ 109
fahrt 109
nern 109
momente 109
viert 109
entsch@@ 109
bekannte 109
dile@@ 109
thei@@ 109
hafte 109
genie@@ 109
erlaub@@ 109
dam 109
erstellt 109
singen 109
tober 109
retro@@ 109
mali@@ 109
expan@@ 109
stellungen 109
kev@@ 109
tsun@@ 109
blieb 109
wahrschein@@ 109
franzö@@ 109
skulp@@ 109
medikament 109
zz 109
craft 109
diet 109
mad 109
conduc@@ 109
experienced 109
connections 109
definitely 109
valuable 109
suggest@@ 109
existence 109
sources 109
gely 109
suggests 109
scene 109
considered 109
fewer 109
fail 109
fabrik 108
furcht@@ 108
gat@@ 108
verknü@@ 108
innere 108
schlafen 108
kapital 108
doll@@ 108
kühl@@ 108
sonder@@ 108
blauen 108
unterrichten 108
elimin@@ 108
nahe@@ 108
ri 108
verteilt 108
beispielsweise 108
zugänglich 108
verdam@@ 108
effektiv 108
teles@@ 108
dunkle 108
aufbau 108
palä@@ 108
grünen 108
beinahe 108
unglaublichen 108
gewe@@ 108
toten 108
bene@@ 108
gps 108
medien@@ 108
simulation 108
dameri@@ 108
schwierigkeiten 108
hallu@@ 108
migr@@ 108
gemäl@@ 108
entwicklungsländern 108
achse 108
players 108
explosion 108
wirkliche 108
sprü@@ 108
verbessert 108
hiv-@@ 108
fresh 108
director 108
relation 108
crash 108
metho@@ 108
radiation 108
sett@@ 108
ight 108
ships 108
method 108
notes 108
silk 108
target 108
buying 108
distin@@ 108
folks 108
relatively 108
goals 108
invention 108
techniques 108
evolutionary 108
characters 108
operate 108
architect 108
mama 107
meer@@ 107
diagramm 107
opp@@ 107
llig 107
erkannt 107
einrichtungen 107
rest@@ 107
müssten 107
gesellschaft@@ 107
kas 107
solange 107
ib@@ 107
abhängi@@ 107
nik 107
gefällt 107
ologischen 107
dimension 107
molekül 107
ter-@@ 107
übrig 107
att@@ 107
geschlagen 107
sin 107
homo 107
komple@@ 107
mitarbeiter 107
zielen 107
pause 107
smith 107
sop@@ 107
13@@ 107
herren 107
internationalen 107
inf@@ 107
authenti@@ 107
inhalt 107
agenda 107
eco@@ 107
stry 107
blan@@ 107
cab@@ 107
mammo@@ 107
plays 107
perception 107
credit 107
centers 107
mented 107
computing 107
dogs 107
axis 107
kitchen 107
aries 107
stable 107
ressed 107
rene@@ 107
aded 107
lifetime 107
require 107
newspaper 107
employees 107
efficiency 107
typically 107
convince 107
increasing 107
photographs 107
durchschnittliche 106
stop@@ 106
ält 106
genü@@ 106
grosse 106
ore@@ 106
haw@@ 106
situationen 106
ritu@@ 106
mails 106
chtern 106
mie@@ 106
insbesondere 106
teenager 106
tale 106
katastrop@@ 106
mode 106
diskussion 106
gold@@ 106
tü@@ 106
aufregend 106
gesichter 106
geregt 106
falten 106
deln 106
schluss@@ 106
büchern 106
liefer@@ 106
maßstab 106
anteil 106
hie@@ 106
caf@@ 106
seltsam 106
asse 106
wärmung 106
gore 106
igkeiten 106
geburt@@ 106
schwarzen 106
kochen 106
ilfe 106
nützlich 106
webseite 106
willst 106
kampagne 106
ardo 106
bai 106
filter 106
eff@@ 106
atoms 106
brian 106
laboratory 106
gla@@ 106
scrat@@ 106
gap 106
serve 106
pants 106
sages 106
fail@@ 106
identify 106
prepared 106
testing 106
defined 106
sides 106
arly 106
explains 106
flat 106
swim 106
epidemic 106
awareness 106
kompliziert 105
tasche 105
mutter@@ 105
vorbei@@ 105
serie 105
stif@@ 105
autor 105
kungen 105
nor 105
text@@ 105
regul@@ 105
vorne 105
unfall 105
peak 105
artige 105
riesen@@ 105
schöpf@@ 105
decken 105
lokalen 105
tlichen 105
einiges 105
grüne 105
implan@@ 105
jim 105
erken@@ 105
wick@@ 105
eindeu@@ 105
koll@@ 105
sour@@ 105
deutsch@@ 105
waff@@ 105
clever 105
äußerst 105
wüste 105
heißen 105
nicht@@ 105
kran@@ 105
alterna@@ 105
linge 105
rett@@ 105
prinzipien 105
altet 105
vorge@@ 105
dna-@@ 105
fair@@ 105
para@@ 105
ecu@@ 105
den-@@ 105
schick@@ 105
28 105
fishing 105
former 105
piano 105
sees 105
applied 105
phr@@ 105
pad 105
curi@@ 105
u.n. 105
lay 105
earth@@ 105
safety 105
marriage 105
breaking 105
clas@@ 105
aled 105
liked 105
represents 105
osity 105
factor 105
previous 105
sentence 105
reward 105
adverti@@ 105
gesund 104
ander 104
tert 104
tnisse 104
entstand 104
gelebt 104
gegründet 104
wettbewerb 104
verpflich@@ 104
freundin 104
großmutter 104
arbeitsp@@ 104
verwandelt 104
häusern 104
gewohn@@ 104
versteht 104
empfin@@ 104
heim 104
beweis 104
ausmaß 104
spin@@ 104
grau@@ 104
moralische 104
beziehen 104
konz@@ 104
telefon@@ 104
minister@@ 104
schnei@@ 104
sequ@@ 104
liefern 104
spiegel@@ 104
nie@@ 104
nachts 104
strahlung 104
1960 104
vul@@ 104
tables 104
inieren 104
21. 104
matri@@ 104
var@@ 104
vog@@ 104
bizar@@ 104
risiken 104
hallo 104
erwachsenen 104
engagement 104
schaue 104
glü@@ 104
fusion 104
brach 104
geschma@@ 104
verring@@ 104
zitat 104
ost@@ 104
überqu@@ 104
henry 104
sent@@ 104
intri@@ 104
pack 104
style 104
naturally 104
ladies 104
unts 104
eastern 104
villa@@ 104
reti@@ 104
quant@@ 104
writer 104
confidence 104
theme 104
ecosystem 104
artic@@ 104
roads 104
rect 104
facing 104
primary 104
vulnerable 104
satis@@ 104
boundar@@ 104
personally 104
battery 104
national@@ 103
arr@@ 103
verbrei@@ 103
joe 103
193@@ 103
metapher 103
geräusche 103
gegenwart 103
stärken 103
120 103
sinni@@ 103
rennen 103
ks@@ 103
stimmung 103
whit@@ 103
bud@@ 103
anpas@@ 103
jewei@@ 103
verti@@ 103
m-@@ 103
ipo@@ 103
breite 103
verblüff@@ 103
sektor 103
mechanis@@ 103
digitale 103
außen 103
gest 103
inje@@ 103
febru@@ 103
australien 103
é 103
weiße 103
beinhaltet 103
verse 103
holfen 103
chemie 103
gment 103
rier 103
zahn@@ 103
burn 103
24@@ 103
tw@@ 103
ord 103
hurt 103
resili@@ 103
oxyto@@ 103
psychiat@@ 103
males 103
may@@ 103
liquid 103
ier 103
pop 103
cational 103
frame 103
exchange 103
govern@@ 103
visible 103
deeper 103
ished 103
accept 103
introduced 103
environments 103
risks 103
planes 103
properties 103
enorme 102
natür@@ 102
gering@@ 102
strand 102
selbe 102
heran@@ 102
bogen 102
erkenn@@ 102
hnte 102
zusammenzu@@ 102
nive@@ 102
anlage 102
erwachsene 102
intellektu@@ 102
schizophren@@ 102
beschloss 102
laptops 102
stehe 102
handlungen 102
allgemeinen 102
sätze 102
gravi@@ 102
schlägt 102
astron@@ 102
garage 102
herstellung 102
sowas 102
favor@@ 102
mem@@ 102
venti@@ 102
orange 102
sach@@ 102
faszin@@ 102
interpretation 102
schreibt 102
tivi@@ 102
vertraut 102
anal@@ 102
geber 102
ewi@@ 102
sandwi@@ 102
leon@@ 102
schimpansen 102
string 102
sitz 102
ee@@ 102
venue 102
ames 102
taliban 102
mich@@ 102
85 102
films 102
ctor 102
stimul@@ 102
planet@@ 102
location 102
survey 102
trillion 102
wise 102
ternal 102
capture 102
ims 102
glamour 102
battle 102
poetry 102
struggle 102
driver 102
convinced 102
unlike 102
appropriate 102
switch 102
strength 102
senses 102
mention 102
tane@@ 102
processes 102
behaviors 102
tains 102
sty@@ 101
licherweise 101
korre@@ 101
versu@@ 101
aden 101
ausgeben 101
vorzustellen 101
roh@@ 101
akzeptieren 101
wieviel 101
rollen 101
anstelle 101
volk 101
präsentieren 101
kombination 101
geheimnis 101
liefert 101
spiritu@@ 101
reiche 101
kirche 101
brand@@ 101
diszi@@ 101
uten 101
tour@@ 101
kriege 101
attle 101
soft@@ 101
resultat 101
stin@@ 101
wofür 101
miner@@ 101
southern 101
enheit 101
darstellen 101
bemerken 101
zeigten 101
echtz@@ 101
üben 101
ay@@ 101
broo@@ 101
hierher 101
banglades@@ 101
mira@@ 101
bucks 101
bob 101
nose 101
afrikas 101
analyse 101
vagina 101
lincol@@ 101
za 101
songs 101
queen 101
hits 101
raising 101
open@@ 101
exploration 101
buil@@ 101
of-@@ 101
click 101
trage@@ 101
carrying 101
requires 101
replace 101
sending 101
stupid 101
rare 101
collapse 101
germany 101
generally 101
frame@@ 101
mistake 101
wondering 101
cooking 101
roof 101
emissions 101
politicians 101
tries 101
einfaches 100
nähr@@ 100
leiter 100
sequenz 100
rad@@ 100
kanada 100
solcher 100
überlegen 100
lige 100
bezüglich 100
versagen 100
willen 100
selbstverständlich 100
voraus 100
schritt@@ 100
farmer 100
ertes 100
verteilung 100
physiker 100
felder 100
dinosau@@ 100
neh@@ 100
pir@@ 100
setzten 100
völ@@ 100
unglaub@@ 100
illegal 100
gemeinsame 100
bestand@@ 100
ek@@ 100
schalt@@ 100
katastrophe 100
veränderte 100
fehlen 100
fassung 100
untersuchung 100
internationale 100
pool 100
pazi@@ 100
bow@@ 100
ous@@ 100
hre 100
großartigen 100
king@@ 100
pilot 100
staf@@ 100
laugh@@ 100
crowd 100
comfort 100
sensitive 100
grid 100
u.k. 100
the-@@ 100
bubble 100
shark 100
strated 100
licen@@ 100
goods 100
unusual 100
components 100
bottle 100
faith 100
received 100
ength 100
psychology 100
solving 100
watched 100
chimpanze@@ 100
penguins 100
belast@@ 99
telef@@ 99
gebieten 99
derer 99
versi@@ 99
füllen 99
watt 99
damen 99
geschäf@@ 99
kriegs@@ 99
menschliches 99
gün@@ 99
vorhanden 99
probieren 99
ax@@ 99
tax@@ 99
bestä@@ 99
anwendung 99
zep@@ 99
pau@@ 99
entfernen 99
llan@@ 99
änge 99
vorhersagen 99
zusammenge@@ 99
verbrechen 99
unterhaltung 99
hol 99
spun@@ 99
fün@@ 99
bene 99
ebenen 99
chtete 99
pä@@ 99
diesel@@ 99
se-@@ 99
landen 99
imple@@ 99
soci@@ 99
pfund 99
multi-@@ 99
liebte 99
inseln 99
thin 99
zität 99
meetings 99
milk 99
sav@@ 99
angiogen@@ 99
stammzellen 99
intro@@ 99
29 99
bag 99
cast 99
pollution 99
ids 99
baseball 99
water@@ 99
pay@@ 99
consumer 99
exam@@ 99
ride 99
birthday 99
integr@@ 99
arri@@ 99
musical 99
unit 99
runs 99
rb 99
broke 99
ballo@@ 99
remin@@ 99
inevi@@ 99
pulled 99
carefully 99
burning 99
noon 99
sustain@@ 99
ancestors 99
need@@ 99
five-@@ 99
gerei@@ 98
proben 98
gemeinschaften 98
meist 98
aktivitäten 98
clay 98
dia 98
1.000 98
chungen 98
trennt 98
zwischen@@ 98
ausstellung 98
vermeiden 98
grundlage 98
absicht 98
homo@@ 98
lan 98
mitta@@ 98
unterstützt 98
schönes 98
legte 98
wovon 98
labor@@ 98
aturen 98
bedenken 98
ga 98
invasi@@ 98
zza 98
agt 98
bewus@@ 98
komment@@ 98
speziellen 98
förmi@@ 98
momentan 98
un 98
burgh 98
stere@@ 98
versor@@ 98
simpl@@ 98
roo@@ 98
tu 98
lächeln 98
co-@@ 98
tig@@ 98
input 98
shang@@ 98
so-@@ 98
entrop@@ 98
manufacturing 98
heirat@@ 98
mirror 98
copy@@ 98
geographic 98
healthcare 98
tracking 98
court 98
asing 98
gover@@ 98
lifest@@ 98
contin@@ 98
destruction 98
hospitals 98
temporary 98
wher@@ 98
collaboration 98
verage 98
manage 98
percentage 98
discussion 98
grain 98
member 98
ingre@@ 98
exercise 98
novel 98
holz@@ 97
halb@@ 97
chteten 97
sms 97
w. 97
stück@@ 97
umfeld 97
langfri@@ 97
veter@@ 97
gigan@@ 97
moment@@ 97
sungen 97
ethi@@ 97
schrecklich 97
apri@@ 97
grafik 97
mlich 97
macher 97
darunter 97
annahme 97
stol@@ 97
übernehmen 97
verbreitung 97
erweitern 97
finger@@ 97
verwir@@ 97
phän@@ 97
här@@ 97
weis 97
usch 97
schnitt@@ 97
umines@@ 97
2011 97
jahrzehnt 97
restri@@ 97
schwa@@ 97
ffer 97
you@@ 97
hollywood 97
bart 97
ridi@@ 97
neuron 97
predat@@ 97
xide 97
mush@@ 97
common@@ 97
counter 97
six@@ 97
golden 97
oles@@ 97
psychop@@ 97
hous@@ 97
wheel@@ 97
behavi@@ 97
remem@@ 97
resear@@ 97
cutting 97
treat@@ 97
mistakes 97
empathy 97
interests 97
brazil 97
arab 97
schriften 96
still@@ 96
verne@@ 96
urban@@ 96
mana@@ 96
sue 96
weih@@ 96
taucht 96
schwarz@@ 96
austr@@ 96
schauten 96
sprecher 96
genu@@ 96
kore@@ 96
ual 96
susta@@ 96
story@@ 96
tious 96
situations 96
comple@@ 96
uss@@ 95
tats@@ 95
seits 95
atur@@ 95
thr@@ 95
beobach@@ 95
gent 95
richt@@ 95
ye 95
begei@@ 95
tribu@@ 95
deci@@ 95
caus@@ 95
phenomen@@ 95
dered 95
arily 95
ktoren 94
risi@@ 94
verantwor@@ 94
amerikan@@ 94
signi@@ 94
trum 94
danken 93
zent@@ 93
chst 93
bec@@ 93
tual 93
entwick@@ 92
zufä@@ 92
alt@@ 92
sst 92
revol@@ 92
zivili@@ 92
q 92
thou@@ 92
ress 92
jahrhunder@@ 91
intelli@@ 91
assen 91
vil@@ 91
haup@@ 91
tube 91
kill@@ 91
fascin@@ 91
competi@@ 91
confli@@ 91
stamm@@ 90
gendes 90
unterschei@@ 90
ener@@ 90
mary 90
allen@@ 90
unger 90
simil@@ 90
mmt 89
w-@@ 89
zel@@ 89
wart 89
kümm@@ 89
gesund@@ 89
verstän@@ 89
tra 89
stati@@ 89
vehi@@ 89
ada@@ 89
increas@@ 89
lossen 88
denten 88
abor@@ 88
benu@@ 88
zusä@@ 88
popul@@ 88
b. 88
taus@@ 88
mam@@ 88
use@@ 88
mou@@ 88
foc@@ 88
gil@@ 87
tech@@ 87
zwe@@ 87
less@@ 87
success@@ 87
duced 87
gangen 86
vermei@@ 86
gefäng@@ 86
fang 86
sons 86
soft 86
transforma@@ 86
urspr@@ 86
curr@@ 86
discus@@ 86
iting 86
certain@@ 86
flei@@ 85
beding@@ 85
beha@@ 85
grü@@ 85
troffen 85
spür@@ 85
afgh@@ 85
diff@@ 85
spru@@ 85
aster 85
elec@@ 85
mir@@ 85
add@@ 85
strug@@ 85
entrepr@@ 84
bewusst@@ 84
schre@@ 84
phot@@ 84
stern@@ 84
grafi@@ 84
konta@@ 84
sud@@ 84
nachzu@@ 84
scop@@ 84
bacteri@@ 84
compon@@ 84
präsen@@ 83
dür@@ 83
interessi@@ 83
neur@@ 83
partment 83
hood 83
öffent@@ 82
inde@@ 82
schir@@ 82
nö@@ 82
turen 82
hall@@ 82
mean@@ 82
das@@ 81
espe@@ 81
hlen@@ 81
bür@@ 81
requ@@ 81
maß 81
year-@@ 81
fic@@ 80
glau@@ 80
absol@@ 80
kation 80
justi@@ 80
citi@@ 80
theor@@ 80
manufac@@ 80
dacht 79
bieren 79
verfüg@@ 79
umin@@ 79
hus@@ 79
samkeit 79
eil 79
vy 79
dama@@ 79
turing 79
crea@@ 79
great@@ 79
mitt@@ 78
alo@@ 78
surpris@@ 78
prepar@@ 78
amei@@ 77
metaph@@ 77
benö@@ 77
commun@@ 77
mexi@@ 77
unterstü@@ 77
fam@@ 77
partic@@ 77
bak@@ 76
masch@@ 76
strat@@ 76
rän@@ 76
schlüs@@ 76
seri@@ 76
py@@ 76
archite@@ 76
ind 76
vulner@@ 76
usual 75
erwachsen@@ 75
dol@@ 75
profess@@ 75
medikam@@ 75
distri@@ 75
follo@@ 75
nien 74
überra@@ 74
zö@@ 74
ve-@@ 74
mmer 74
commer@@ 74
what@@ 74
collap@@ 74
vered 74
proper@@ 74
zations 74
rem 73
gehir@@ 73
viol@@ 73
aly@@ 73
tude 73
spee@@ 73
interest@@ 73
indepen@@ 73
ually 73
krat@@ 72
aufmerk@@ 72
… 72
herauszu@@ 72
gebur@@ 72
ston 72
agri@@ 72
quot@@ 72
eping 72
schön@@ 71
+ 71
häufi@@ 71
ernähr@@ 71
hm@@ 71
sth@@ 71
coll@@ 71
á@@ 71
pan 71
ameri@@ 70
mäd@@ 70
ama 70
abhän@@ 70
zusam@@ 70
asse@@ 70
wettbewer@@ 70
oms 70
foun@@ 70
disc@@ 70
long-@@ 70
gery 70
aper 70
dere 69
gelö@@ 69
kir@@ 69
pie@@ 69
eth 69
ira@@ 69
stan 69
architek@@ 69
abo@@ 69
nia 69
manu@@ 69
fic 69
tely 69
stly 69
muse@@ 68
relev@@ 68
perspe@@ 68
dow@@ 68
zens 68
brilli@@ 68
oud 68
stors 68
vels 68
deep@@ 68
nahr@@ 67
näch@@ 67
dings 67
genan@@ 67
jä@@ 67
grupp@@ 67
weal@@ 67
phen@@ 67
gir@@ 67
verhäl@@ 66
lieder 66
keiten 66
zau@@ 66
blich 66
einfa@@ 66
wesent@@ 66
trou@@ 66
mous 66
sugge@@ 66
tery 66
fs@@ 65
wirkungen 65
imp@@ 65
spie@@ 65
tempor@@ 65
listen@@ 65
bub@@ 65
fortunately 65
rely 65
möglich@@ 64
lap@@ 64
ttle 64
ision 64
ond 64
geg@@ 64
ause 64
ance@@ 64
alia 64
ghter 64
expen@@ 64
zahlt 63
unterschied@@ 63
num@@ 63
alls 63
bili@@ 63
dnis 63
soll@@ 63
astrop@@ 63
class@@ 63
collea@@ 63
questi@@ 63
stim@@ 62
tsam 62
richti@@ 62
kräf@@ 62
umgeb@@ 62
hing@@ 62
nee@@ 62
moun@@ 62
ires 62
democra@@ 62
enced 62
fot@@ 61
ire 61
präsent@@ 61
let@@ 61
goog@@ 61
mor 61
dation 61
danger@@ 61
consci@@ 61
confi@@ 61
kind@@ 60
infra@@ 60
mathema@@ 60
rs 60
evi@@ 60
with@@ 60
pon 60
ony@@ 59
event@@ 59
sauer@@ 59
konzent@@ 59
halten@@ 59
libr@@ 59
vag@@ 59
mption 59
schirm 58
erfahr@@ 58
kilome@@ 58
com 58
ban 58
gle 58
ings@@ 58
boun@@ 58
immedi@@ 58
cise 58
mote 58
neighbor@@ 58
recy@@ 57
einflus@@ 57
poe@@ 57
molekü@@ 57
grundsä@@ 57
eben@@ 57
verursa@@ 57
beh@@ 57
engine@@ 57
world@@ 57
condi@@ 57
hori@@ 57
transp@@ 57
ices 57
decisi@@ 57
diskus@@ 56
ergeb@@ 56
kör@@ 56
bile 56
medic@@ 56
expe@@ 56
pollu@@ 56
vil 56
choo@@ 56
ghtly 56
bang@@ 55
zwi@@ 55
traff@@ 55
kürz@@ 55
tex 55
ap 55
paki@@ 55
cei@@ 55
diffic@@ 55
exist@@ 54
ross 54
liebl@@ 54
ital 54
geräu@@ 54
› 54
‹ 54
sug@@ 54
rul@@ 54
pid 54
eness 54
won@@ 53
keit 53
einfl@@ 53
fiel@@ 53
atmosp@@ 53
eing 53
jenigen 53
ollywood 53
kehr 52
konfer@@ 52
internation@@ 52
satur@@ 52
strahl@@ 52
asy 52
bron@@ 52
iness 52
pedia 52
experi@@ 52
inging 52
rying 52
ada 51
.. 51
zept 51
mers 51
psy@@ 51
know@@ 51
pengu@@ 51
midd@@ 51
signific@@ 51
fundam@@ 50
ersta@@ 50
erkan@@ 50
tötet 50
vent 50
vel 50
clear@@ 50
carb@@ 50
iety 50
teach@@ 50
protot@@ 49
busin@@ 49
zusagen 49
chur@@ 49
valent 49
k. 49
doc@@ 49
valu@@ 49
cess@@ 49
beten 48
vereinig@@ 48
strateg@@ 48
inier@@ 48
verbin@@ 48
utes 48
übri@@ 48
wirt@@ 48
oly@@ 48
photogra@@ 48
tty 48
cum@@ 48
seem@@ 48
phic 47
zar@@ 47
ktu@@ 47
chtigkeit 47
gründet 47
zy 47
vey 47
strate@@ 47
read@@ 47
concern@@ 47
peop@@ 47
zugän@@ 46
abili@@ 46
face@@ 46
oze@@ 46
wett@@ 46
stab 46
environ@@ 46
rais@@ 46
campaig@@ 46
landscap@@ 46
prac@@ 46
eri@@ 45
wiki@@ 45
° 45
extrem@@ 45
verhalten@@ 45
stud@@ 45
machin@@ 45
avo@@ 45
knowle@@ 45
eting 45
big@@ 44
dnung 44
wahrneh@@ 44
män@@ 44
gala@@ 44
spea@@ 44
fashi@@ 44
previ@@ 44
cient 44
soldi@@ 44
rieb 43
ih@@ 43
symp@@ 43
there@@ 43
remark@@ 43
earli@@ 43
öhn@@ 42
vorhan@@ 42
omen@@ 42
verständlich 42
gä@@ 42
prise 42
bibli@@ 42
vide@@ 42
inven@@ 42
cogni@@ 42
geneh@@ 41
ques 41
oce@@ 41
dit 41
absolu@@ 41
soc@@ 41
tioned 41
selves 41
auton@@ 40
) 40
cris@@ 40
sup@@ 40
cess 40
agieren 39
forschen 39
pers@@ 39
lik@@ 39
kunde 39
tali@@ 39
equi@@ 39
beauti@@ 39
anno@@ 39
storben 38
milliar@@ 38
britan@@ 38
ring@@ 38
sands 38
dden 38
vili@@ 38
mber 38
ficial 38
ange 37
ermög@@ 37
genheit 37
hri@@ 37
geschwindi@@ 37
gues 37
pathy 37
princi@@ 37
famili@@ 36
terr@@ 36
yel@@ 36
publik@@ 36
rät@@ 36
osau@@ 36
figh@@ 36
deb@@ 36
sequences 36
häus@@ 35
interess@@ 35
beeinflus@@ 35
intelle@@ 35
iti 35
adul@@ 35
aum 35
scap@@ 35
quick@@ 35
rd 35
scienti@@ 35
stert 34
anthro@@ 34
mittl@@ 34
teili@@ 34
att 34
plö@@ 34
call@@ 34
performan@@ 34
appropri@@ 34
exer@@ 34
xic@@ 34
convin@@ 34
vid 34
responsi@@ 34
karri@@ 33
½ 33
beispiel@@ 33
mög@@ 33
= 33
kle 33
grow@@ 33
fft 32
hindern 32
schimpan@@ 32
gespro@@ 32
tish 32
dab@@ 32
itely 32
fically 32
hmen@@ 31
anim@@ 31
them@@ 31
ehen 31
pian@@ 31
base@@ 31
kay 31
malari@@ 31
euro@@ 31
ó@@ 31
volun@@ 31
actu@@ 31
suc@@ 31
unity 31
issu@@ 31
oxy@@ 30
gebra@@ 30
zeitig 30
perfor@@ 30
² 30
through@@ 30
hospit@@ 30
effici@@ 30
ctly 30
kalifor@@ 29
herausforder@@ 29
erweise 29
olly@@ 29
gebie@@ 29
engl@@ 29
diab@@ 29
sear@@ 29
electri@@ 29
easi@@ 29
bilities 29
hren@@ 28
@ 28
trilli@@ 28
ultima@@ 28
milit@@ 28
chers 28
tops 28
brazi@@ 28
zine 28
dee@@ 28
him@@ 28
child@@ 28
notic@@ 28
ousness 28
passion@@ 28
hundre@@ 28
mathe@@ 27
resour@@ 27
other@@ 27
aufgab@@ 27
verän@@ 27
onnen 27
meth@@ 27
è@@ 27
psychi@@ 27
marke@@ 27
í@@ 27
erzä@@ 27
pagne 27
americ@@ 27
inte@@ 27
gement 27
nst 26
kratie 26
verblü@@ 26
verbra@@ 26
bevölk@@ 26
simp@@ 26
wech@@ 26
phar@@ 26
energ@@ 26
ould 26
entde@@ 25
angi@@ 25
affe@@ 25
capac@@ 25
isla@@ 25
‟ 25
shou@@ 25
maj@@ 24
großbritan@@ 24
restau@@ 24
stero@@ 24
geschie@@ 24
alg@@ 24
situ@@ 24
accor@@ 24
bedingt 23
fasz@@ 23
eicht 23
jem@@ 23
bezieh@@ 23
feed@@ 23
ske@@ 23
ressour@@ 23
schied 23
tol@@ 23
tality 23
schieden 23
til 23
chro@@ 23
presi@@ 23
grou@@ 23
marri@@ 23
effec@@ 23
deca@@ 23
jour@@ 23
prinzipi@@ 22
funden 22
cals 22
wichtig@@ 22
lieb 22
flori@@ 22
entfer@@ 22
ogen@@ 22
ough@@ 22
awar@@ 22
socie@@ 22
tremend@@ 22
intellec@@ 22
employe@@ 21
gesell@@ 21
haupt 21
# 21
wus@@ 21
xt 21
geschw@@ 21
ächlich 21
‚ 21
kalien 21
safe@@ 21
rant 21
benef@@ 21
straß@@ 20
haupts@@ 20
elektri@@ 20
beinhal@@ 20
ests 20
europe@@ 20
patter@@ 20
vail@@ 20
mista@@ 20
avail@@ 20
ult 19
( 19
dafri@@ 19
fert 19
abli@@ 19
.b. 19
zeital@@ 19
rhy@@ 19
ruption 19
schizop@@ 18
för@@ 18
n. 18
nerv@@ 18
bess@@ 18
künf@@ 18
foreig@@ 18
wies@@ 17
etz 17
natu@@ 17
agen 17
β@@ 17
solu@@ 17
professi@@ 17
birth@@ 17
complic@@ 17
tea@@ 17
mole@@ 16
ñ@@ 16
seit@@ 16
ihr@@ 16
sophi@@ 16
leist@@ 16
ith 16
fren@@ 16
‒ 16
dn 16
comfort@@ 16
efully 16
geria 16
gni@@ 15
job@@ 15
ungefä@@ 15
intu@@ 15
à 15
diag@@ 15
your@@ 15
sep@@ 15
instit@@ 15
where@@ 15
cule 15
posite 15
pflich@@ 14
gem@@ 14
onlin@@ 14
bestim@@ 14
astern 14
famil@@ 14
afghani@@ 14
ote 14
dimen@@ 13
europ@@ 13
erwei@@ 13
autom@@ 13
ü 13
fahr 13
^ 13
mosp@@ 13
häre 13
rough@@ 13
relation@@ 13
pover@@ 13
weapon@@ 13
invisi@@ 13
thom@@ 12
det@@ 12
fäng@@ 12
beau@@ 12
letzten@@ 12
norm@@ 12
paci@@ 12
stom@@ 12
exac@@ 12
rami@@ 11
auß@@ 11
bedür@@ 11
versums 11
quas@@ 11
unser@@ 11
curity 11
reme@@ 11
emo@@ 10
geschaff@@ 10
gegent@@ 10
manhat@@ 10
ç@@ 10
ã@@ 10
destru@@ 10
movi@@ 10
galaxi@@ 10
chir@@ 10
cisco 10
mexic@@ 10
telev@@ 10
dise@@ 10
falt 9
chic@@ 9
na-@@ 9
müs@@ 9
ttel 9
minde@@ 9
gyp@@ 9
two@@ 9
ê@@ 8
í 8
_ 8
califor@@ 8
ernsth@@ 8
alzhei@@ 8
entre@@ 8
zumin@@ 8
stead 8
aga@@ 8
züglich 8
micha@@ 8
cept 8
compan@@ 8
irgen@@ 7
osop@@ 7
galax@@ 7
onder@@ 7
lebe@@ 7
expon@@ 7
zeugt 7
prinzi@@ 7
 7
buchstä@@ 7
vices 7
pment 7
raid 7
health@@ 7
percent@@ 7
slow@@ 7
äume 6
trotz@@ 6
amera 6
ement@@ 6
ween 6
kog@@ 6
viron@@ 6
ó 6
mend@@ 6
zop@@ 6
* 6
ully 6
feel@@ 6
tice 6
econ@@ 5
garti@@ 5
ution@@ 5
intel@@ 5
elek@@ 5
¥ 5
inst 5
ø@@ 5
viell@@ 5
â@@ 5
 5
 5
silic@@ 5
opport@@ 5
etes 5
langu@@ 5
industr@@ 5
degre@@ 5
ernt 4
ück 4
zhei@@ 4
ú@@ 4
vertr@@ 4
othe@@ 4
beson@@ 4
ā@@ 4
ö 4
gespi@@ 4
flä@@ 4
chmal 4
` 4
­ 4
 4
disci@@ 4
pite 4
fore 4
อ@@ 4
³ 3
incredi@@ 3
ä 3
possi@@ 3
washing@@ 3
verbess@@ 3
orith@@ 3
ô@@ 3
kens@@ 3
β 3
¼ 3
£ 3
began@@ 3
smit@@ 3
× 3
œ@@ 3
complex@@ 3
goti@@ 3
toge@@ 3
happen@@ 3
liqu@@ 3
every@@ 3
eler@@ 3
â 3
 3
 3
yester@@ 3
ë@@ 2
hund@@ 2
richt 2
hosp@@ 2
ï@@ 2
bekan@@ 2
beina@@ 2
bey@@ 2
erlau@@ 2
è 2
© 2
\ 2
`@@ 2
bras@@ 2
å@@ 2
送@@ 2
你@@ 2
葱 2
€ 2
indivi@@ 2
meet@@ 2
dership 2
casi@@ 2
ร 2
่ 2
ý@@ 1
import@@ 1
﻿ 1
ō@@ 1
irgendet@@ 1
¾ 1
esn 1
š@@ 1
jeden@@ 1
， 1
á 1
к@@ 1
niem@@ 1
ë 1
® 1
à@@ 1
perha@@ 1
ӓ@@ 1
î@@ 1
paig@@ 1
windo@@ 1
obvi@@ 1
charac@@ 1
denly 1
ffee 1
rants 1
unities 1
devel@@ 1
childr@@ 1
ă@@ 1
ť 1
effi@@ 1
ē 1
ย@@ 1
ย 1
ć 1
madeupword0000 0
madeupword0001 0
madeupword0002 0
madeupword0003 0
